{
  "version": "1.0",
  "truncation": null,
  "padding": null,
  "added_tokens": [
    {
      "id": 0,
      "content": "<UNK>",
      "single_word": false,
      "lstrip": false,
      "rstrip": false,
      "normalized": false,
      "special": true
    },
    {
      "id": 1,
      "content": "<PAD>",
      "single_word": false,
      "lstrip": false,
      "rstrip": false,
      "normalized": false,
      "special": true
    },
    {
      "id": 2,
      "content": "<BOS>",
      "single_word": false,
      "lstrip": false,
      "rstrip": false,
      "normalized": false,
      "special": true
    },
    {
      "id": 3,
      "content": "<EOS>",
      "single_word": false,
      "lstrip": false,
      "rstrip": false,
      "normalized": false,
      "special": true
    },
    {
      "id": 4,
      "content": "<AUDIO_START>",
      "single_word": false,
      "lstrip": false,
      "rstrip": false,
      "normalized": false,
      "special": true
    }
  ],
  "normalizer": null,
  "pre_tokenizer": {
    "type": "Metaspace",
    "replacement": "▁",
    "prepend_scheme": "always",
    "split": true
  },
  "post_processor": null,
  "decoder": {
    "type": "Metaspace",
    "replacement": "▁",
    "prepend_scheme": "always",
    "split": true
  },
  "model": {
    "type": "BPE",
    "dropout": null,
    "unk_token": "<UNK>",
    "continuing_subword_prefix": null,
    "end_of_word_suffix": null,
    "fuse_unk": false,
    "byte_fallback": false,
    "ignore_merges": false,
    "vocab": {
      "<UNK>": 0,
      "<PAD>": 1,
      "<BOS>": 2,
      "<EOS>": 3,
      "<AUDIO_START>": 4,
      "!": 5,
      "\"": 6,
      "#": 7,
      "$": 8,
      "%": 9,
      "&": 10,
      "'": 11,
      "(": 12,
      ")": 13,
      "*": 14,
      "+": 15,
      ",": 16,
      "-": 17,
      ".": 18,
      "/": 19,
      "0": 20,
      "1": 21,
      "2": 22,
      "3": 23,
      "4": 24,
      "5": 25,
      "6": 26,
      "7": 27,
      "8": 28,
      "9": 29,
      ":": 30,
      ";": 31,
      "<": 32,
      "=": 33,
      ">": 34,
      "?": 35,
      "@": 36,
      "A": 37,
      "B": 38,
      "C": 39,
      "D": 40,
      "E": 41,
      "F": 42,
      "G": 43,
      "H": 44,
      "I": 45,
      "J": 46,
      "K": 47,
      "L": 48,
      "M": 49,
      "N": 50,
      "O": 51,
      "P": 52,
      "Q": 53,
      "R": 54,
      "S": 55,
      "T": 56,
      "U": 57,
      "V": 58,
      "W": 59,
      "X": 60,
      "Y": 61,
      "Z": 62,
      "[": 63,
      "\\": 64,
      "]": 65,
      "^": 66,
      "_": 67,
      "`": 68,
      "a": 69,
      "b": 70,
      "c": 71,
      "d": 72,
      "e": 73,
      "f": 74,
      "g": 75,
      "h": 76,
      "i": 77,
      "j": 78,
      "k": 79,
      "l": 80,
      "m": 81,
      "n": 82,
      "o": 83,
      "p": 84,
      "q": 85,
      "r": 86,
      "s": 87,
      "t": 88,
      "u": 89,
      "v": 90,
      "w": 91,
      "x": 92,
      "y": 93,
      "z": 94,
      "{": 95,
      "|": 96,
      "}": 97,
      "~": 98,
      "¯": 99,
      "æ": 100,
      "é": 101,
      "ê": 102,
      "œ": 103,
      "—": 104,
      "▁": 105,
      "▁t": 106,
      "he": 107,
      "▁a": 108,
      "in": 109,
      "▁the": 110,
      "▁s": 111,
      "▁w": 112,
      "▁o": 113,
      "re": 114,
      "nd": 115,
      "er": 116,
      "ha": 117,
      "▁b": 118,
      "ou": 119,
      "ed": 120,
      "▁m": 121,
      "it": 122,
      "▁f": 123,
      "is": 124,
      "▁c": 125,
      "en": 126,
      "on": 127,
      "▁to": 128,
      "▁of": 129,
      "▁and": 130,
      "ing": 131,
      "or": 132,
      "▁d": 133,
      "▁p": 134,
      "es": 135,
      "ll": 136,
      "▁h": 137,
      "as": 138,
      "ar": 139,
      "▁in": 140,
      "▁he": 141,
      "▁l": 142,
      "an": 143,
      "at": 144,
      "▁n": 145,
      "▁ha": 146,
      "om": 147,
      "▁I": 148,
      "▁g": 149,
      "▁be": 150,
      "hat": 151,
      "le": 152,
      "ot": 153,
      "ut": 154,
      "▁e": 155,
      "▁\"": 156,
      "ic": 157,
      "ow": 158,
      "id": 159,
      "ld": 160,
      "ly": 161,
      "im": 162,
      "▁was": 163,
      "▁th": 164,
      "ve": 165,
      "st": 166,
      "se": 167,
      "▁y": 168,
      "▁T": 169,
      "gh": 170,
      "ent": 171,
      "▁it": 172,
      "▁that": 173,
      "▁re": 174,
      "▁on": 175,
      "ce": 176,
      "▁u": 177,
      "et": 178,
      "ion": 179,
      "▁you": 180,
      "ver": 181,
      "al": 182,
      "ir": 183,
      "ith": 184,
      "ay": 185,
      "▁for": 186,
      "▁as": 187,
      "▁his": 188,
      "▁wh": 189,
      "▁with": 190,
      "▁st": 191,
      "▁we": 192,
      "ght": 193,
      "ur": 194,
      "ad": 195,
      "ro": 196,
      "▁The": 197,
      "ac": 198,
      "▁is": 199,
      "▁not": 200,
      "s,": 201,
      "▁had": 202,
      "her": 203,
      "ri": 204,
      "▁an": 205,
      "▁A": 206,
      "▁her": 207,
      "oo": 208,
      "ould": 209,
      "am": 210,
      "▁S": 211,
      "ter": 212,
      "▁at": 213,
      "ke": 214,
      "▁H": 215,
      "ill": 216,
      "if": 217,
      "▁se": 218,
      "e,": 219,
      "▁sa": 220,
      "ain": 221,
      "▁him": 222,
      "ct": 223,
      "red": 224,
      "ch": 225,
      "▁B": 226,
      "▁su": 227,
      "▁she": 228,
      "il": 229,
      "'s": 230,
      ".\"": 231,
      "▁so": 232,
      "▁me": 233,
      "pp": 234,
      "ore": 235,
      "ight": 236,
      "▁r": 237,
      "▁but": 238,
      "all": 239,
      "ess": 240,
      "▁k": 241,
      "▁de": 242,
      "▁have": 243,
      "▁W": 244,
      "▁fr": 245,
      "▁C": 246,
      "ich": 247,
      "ome": 248,
      "ul": 249,
      "qu": 250,
      "▁all": 251,
      "▁up": 252,
      "▁by": 253,
      "▁con": 254,
      "▁said": 255,
      "▁M": 256,
      "▁my": 257,
      "▁do": 258,
      "▁they": 259,
      "s.": 260,
      "th": 261,
      "▁ne": 262,
      "and": 263,
      "▁sh": 264,
      "▁which": 265,
      "pe": 266,
      "▁ex": 267,
      "▁were": 268,
      "▁from": 269,
      "▁this": 270,
      "est": 271,
      "▁whe": 272,
      "ag": 273,
      "ust": 274,
      "ble": 275,
      "y,": 276,
      "nt": 277,
      "▁or": 278,
      "ard": 279,
      "ant": 280,
      "us": 281,
      "ation": 282,
      "res": 283,
      "▁He": 284,
      "▁fe": 285,
      "▁them": 286,
      "▁one": 287,
      ",\"": 288,
      "our": 289,
      "lf": 290,
      "▁v": 291,
      "▁man": 292,
      "▁int": 293,
      "▁li": 294,
      "em": 295,
      "very": 296,
      "ist": 297,
      "ood": 298,
      "▁P": 299,
      "out": 300,
      "▁al": 301,
      "os": 302,
      "▁are": 303,
      "▁who": 304,
      "ous": 305,
      "ind": 306,
      "e.": 307,
      "art": 308,
      "ed,": 309,
      "ast": 310,
      "▁no": 311,
      "ong": 312,
      "▁out": 313,
      "▁would": 314,
      "▁kn": 315,
      "'t": 316,
      "ak": 317,
      "▁com": 318,
      "ound": 319,
      "▁there": 320,
      "ol": 321,
      "▁their": 322,
      "ra": 323,
      "▁wor": 324,
      "ame": 325,
      "▁ab": 326,
      "ked": 327,
      "es,": 328,
      "▁j": 329,
      "▁le": 330,
      "un": 331,
      "?\"": 332,
      "▁\"I": 333,
      "um": 334,
      "ig": 335,
      "▁will": 336,
      "itt": 337,
      "pt": 338,
      "han": 339,
      "ive": 340,
      "ough": 341,
      "ie": 342,
      "▁'": 343,
      "▁go": 344,
      "▁been": 345,
      "▁F": 346,
      "▁D": 347,
      "el": 348,
      "▁L": 349,
      "▁pl": 350,
      "ell": 351,
      "own": 352,
      "reat": 353,
      "self": 354,
      "▁G": 355,
      "ven": 356,
      "hed": 357,
      "ack": 358,
      "ort": 359,
      "ure": 360,
      "▁pro": 361,
      "ers": 362,
      "▁could": 363,
      "▁ag": 364,
      "▁when": 365,
      "ace": 366,
      "ake": 367,
      "▁qu": 368,
      "ost": 369,
      "ther": 370,
      "▁tr": 371,
      "ate": 372,
      "▁N": 373,
      "▁sp": 374,
      "▁It": 375,
      "ck": 376,
      "▁O": 377,
      "▁tw": 378,
      "▁what": 379,
      "op": 380,
      "y.": 381,
      "▁can": 382,
      "ed.": 383,
      "▁af": 384,
      "▁tim": 385,
      "▁E": 386,
      "▁ro": 387,
      "▁if": 388,
      "▁into": 389,
      "au": 390,
      "hing": 391,
      "▁un": 392,
      "ect": 393,
      "od": 394,
      "▁But": 395,
      "▁ar": 396,
      "▁any": 397,
      "ose": 398,
      "▁pr": 399,
      "▁your": 400,
      "ep": 401,
      "nder": 402,
      "one": 403,
      "are": 404,
      "▁some": 405,
      "▁more": 406,
      "ge": 407,
      "ook": 408,
      "ittle": 409,
      "▁cl": 410,
      "▁did": 411,
      "ered": 412,
      "way": 413,
      "▁mr": 414,
      "urn": 415,
      "ought": 416,
      "fore": 417,
      "▁little": 418,
      "▁too": 419,
      "▁R": 420,
      "▁like": 421,
      "▁very": 422,
      "ink": 423,
      "▁br": 424,
      "▁dis": 425,
      "ence": 426,
      "▁am": 427,
      "▁other": 428,
      "ci": 429,
      "▁gr": 430,
      "▁about": 431,
      "pl": 432,
      "other": 433,
      "able": 434,
      "ing,": 435,
      "per": 436,
      "▁im": 437,
      "cc": 438,
      "▁day": 439,
      "!\"": 440,
      "▁en": 441,
      "ved": 442,
      "▁know": 443,
      "ite": 444,
      "▁co": 445,
      "ide": 446,
      "▁And": 447,
      "▁over": 448,
      "▁sha": 449,
      "▁ch": 450,
      "ry": 451,
      "▁than": 452,
      "ass": 453,
      "ance": 454,
      "ab": 455,
      "ity": 456,
      "ear": 457,
      "▁J": 458,
      "ish": 459,
      "▁then": 460,
      "▁great": 461,
      "▁again": 462,
      "ick": 463,
      "▁\"W": 464,
      "ire": 465,
      "ff": 466,
      "▁upon": 467,
      "▁has": 468,
      "▁ad": 469,
      "wn": 470,
      "ment": 471,
      "ade": 472,
      "ud": 473,
      "▁now": 474,
      "▁us": 475,
      "ather": 476,
      "▁fl": 477,
      "ount": 478,
      "er,": 479,
      "▁hand": 480,
      "▁only": 481,
      "▁bl": 482,
      "end": 483,
      "▁after": 484,
      "es.": 485,
      "▁see": 486,
      "▁should": 487,
      "ree": 488,
      "▁its": 489,
      "▁per": 490,
      "ng": 491,
      "▁app": 492,
      "▁must": 493,
      "▁down": 494,
      "▁bo": 495,
      "▁She": 496,
      "▁two": 497,
      "▁good": 498,
      "▁\"T": 499,
      "▁po": 500,
      "▁off": 501,
      "uch": 502,
      "ap": 503,
      "ally": 504,
      "een": 505,
      "ile": 506,
      "ress": 507,
      "ove": 508,
      "▁our": 509,
      "ull": 510,
      "▁Th": 511,
      "act": 512,
      "▁before": 513,
      "ine": 514,
      "▁pe": 515,
      "▁time": 516,
      "▁say": 517,
      "av": 518,
      "ful": 519,
      "▁pre": 520,
      "You": 521,
      "▁think": 522,
      "ward": 523,
      "hen": 524,
      "ly,": 525,
      "▁fir": 526,
      "▁made": 527,
      "ild": 528,
      "▁back": 529,
      "ty": 530,
      "ice": 531,
      "▁part": 532,
      "▁str": 533,
      "▁ri": 534,
      "▁came": 535,
      "▁thing": 536,
      "▁fo": 537,
      "ies": 538,
      "▁long": 539,
      "▁thr": 540,
      "▁old": 541,
      "▁how": 542,
      "on't": 543,
      "ft": 544,
      "ere": 545,
      "▁spe": 546,
      "--": 547,
      "▁much": 548,
      "ord": 549,
      "▁cont": 550,
      "▁sm": 551,
      "ert": 552,
      "▁way": 553,
      "▁under": 554,
      "iv": 555,
      "▁such": 556,
      "ing.": 557,
      "▁thought": 558,
      "ly.": 559,
      "▁rem": 560,
      "▁bec": 561,
      "▁In": 562,
      "▁every": 563,
      "ach": 564,
      "n't": 565,
      "▁cha": 566,
      "▁ey": 567,
      "▁first": 568,
      "▁sc": 569,
      "orn": 570,
      "▁never": 571,
      "cl": 572,
      "ied": 573,
      "ip": 574,
      "ious": 575,
      "ave": 576,
      "ang": 577,
      "▁look": 578,
      "ark": 579,
      "▁where": 580,
      "▁may": 581,
      "▁res": 582,
      "▁went": 583,
      "▁these": 584,
      "▁himself": 585,
      "▁gl": 586,
      "▁come": 587,
      "▁even": 588,
      "▁bet": 589,
      "ried": 590,
      "▁well": 591,
      "▁ob": 592,
      "▁just": 593,
      "led": 594,
      "int": 595,
      "▁seem": 596,
      "ond": 597,
      "▁lif": 598,
      "▁own": 599,
      "oss": 600,
      "▁beg": 601,
      "▁They": 602,
      "▁des": 603,
      "er.": 604,
      "ated": 605,
      "age": 606,
      "▁comp": 607,
      "▁att": 608,
      "llow": 609,
      "ary": 610,
      "▁sl": 611,
      "ness": 612,
      "▁get": 613,
      "▁might": 614,
      "ian": 615,
      "ew": 616,
      "▁wat": 617,
      "ouse": 618,
      "▁make": 619,
      "▁let": 620,
      "▁imp": 621,
      "▁ind": 622,
      "iss": 623,
      "▁cr": 624,
      "▁it.": 625,
      "▁away": 626,
      "iz": 627,
      "ions": 628,
      "▁K": 629,
      "omet": 630,
      "iff": 631,
      "▁ke": 632,
      "ever": 633,
      "▁cons": 634,
      "h,": 635,
      "ue": 636,
      "▁men": 637,
      "ared": 638,
      "▁head": 639,
      "▁turn": 640,
      "▁here": 641,
      "ving": 642,
      "▁ho": 643,
      "ber": 644,
      "▁\"A": 645,
      "ix": 646,
      "▁bel": 647,
      "▁through": 648,
      "▁op": 649,
      "▁pass": 650,
      "▁most": 651,
      "▁call": 652,
      "anc": 653,
      "ign": 654,
      "▁There": 655,
      "▁it,": 656,
      "▁acc": 657,
      "▁sw": 658,
      "ause": 659,
      "▁without": 660,
      "ady": 661,
      "▁fri": 662,
      "ult": 663,
      "▁car": 664,
      "ible": 665,
      "▁night": 666,
      "▁work": 667,
      "pect": 668,
      "▁found": 669,
      "▁last": 670,
      "▁I'": 671,
      "air": 672,
      "▁him.": 673,
      "▁cour": 674,
      "ople": 675,
      "a,": 676,
      "▁loo": 677,
      "▁ent": 678,
      "▁lo": 679,
      "▁ret": 680,
      "▁year": 681,
      "▁take": 682,
      "ise": 683,
      "ail": 684,
      "▁still": 685,
      "ath": 686,
      "ion,": 687,
      "▁ear": 688,
      "▁pres": 689,
      "▁This": 690,
      "▁put": 691,
      "▁right": 692,
      "▁word": 693,
      "▁Then": 694,
      "▁want": 695,
      "ne": 696,
      "▁don't": 697,
      "▁shall": 698,
      "▁somet": 699,
      "here": 700,
      "▁tell": 701,
      "▁him,": 702,
      "▁saw": 703,
      "▁place": 704,
      "▁those": 705,
      "▁took": 706,
      "▁house": 707,
      "▁har": 708,
      "▁people": 709,
      "ily": 710,
      "▁comm": 711,
      "leas": 712,
      "get": 713,
      "▁being": 714,
      "ened": 715,
      "▁mat": 716,
      "▁child": 717,
      "ans": 718,
      "▁We": 719,
      "▁looked": 720,
      "▁wom": 721,
      "on,": 722,
      "▁St": 723,
      "ub": 724,
      "oth": 725,
      "▁happ": 726,
      "alk": 727,
      "▁ser": 728,
      "▁nothing": 729,
      "▁em": 730,
      "▁many": 731,
      "▁face": 732,
      "▁far": 733,
      "ps": 734,
      "▁asked": 735,
      "▁young": 736,
      "ict": 737,
      "▁When": 738,
      "▁three": 739,
      "less": 740,
      "▁room": 741,
      "▁wr": 742,
      "irl": 743,
      "les": 744,
      "ished": 745,
      "▁dist": 746,
      "▁end": 747,
      "ion.": 748,
      "gg": 749,
      "▁jo": 750,
      "man": 751,
      "▁another": 752,
      "▁friend": 753,
      "▁new": 754,
      "o,": 755,
      "▁once": 756,
      "sw": 757,
      "aking": 758,
      "▁left": 759,
      "lt": 760,
      "▁As": 761,
      "▁supp": 762,
      "▁ac": 763,
      "..": 764,
      "ens": 765,
      "aw": 766,
      "▁act": 767,
      "igh": 768,
      "ertain": 769,
      "▁diff": 770,
      "vent": 771,
      "▁light": 772,
      "ves": 773,
      "ren": 774,
      "▁inst": 775,
      "oment": 776,
      "ical": 777,
      "▁moment": 778,
      "▁\"N": 779,
      "ince": 780,
      "▁rep": 781,
      "ons": 782,
      "▁set": 783,
      "cess": 784,
      "orm": 785,
      "▁while": 786,
      "▁You": 787,
      "ject": 788,
      "▁arm": 789,
      "▁same": 790,
      "▁door": 791,
      "▁find": 792,
      "▁mar": 793,
      "▁heart": 794,
      "▁answ": 795,
      "▁\"H": 796,
      "▁said,": 797,
      "und": 798,
      "▁At": 799,
      "pped": 800,
      "▁father": 801,
      "▁me,": 802,
      "▁ever": 803,
      "▁poss": 804,
      "ways": 805,
      "▁rec": 806,
      "thing": 807,
      "den": 808,
      "▁mrs": 809,
      "▁dr": 810,
      "▁girl": 811,
      "▁count": 812,
      "▁sec": 813,
      "ock": 814,
      "rew": 815,
      "▁hor": 816,
      "▁te": 817,
      "▁seemed": 818,
      "▁mind": 819,
      ".'": 820,
      "▁pleas": 821,
      "hes": 822,
      "sel": 823,
      "▁form": 824,
      "so": 825,
      "▁pers": 826,
      "▁got": 827,
      "ank": 828,
      "▁stre": 829,
      "▁follow": 830,
      "▁though": 831,
      "ched": 832,
      "▁yet": 833,
      "▁eyes": 834,
      "▁chan": 835,
      "▁V": 836,
      "▁always": 837,
      "▁sur": 838,
      "ower": 839,
      "▁sat": 840,
      "▁something": 841,
      "▁So": 842,
      "▁nat": 843,
      "▁sub": 844,
      "aut": 845,
      "uck": 846,
      "▁give": 847,
      "▁\"B": 848,
      "▁going": 849,
      "▁told": 850,
      "ory": 851,
      "▁heard": 852,
      "▁world": 853,
      "▁soon": 854,
      "ru": 855,
      "aught": 856,
      "ott": 857,
      "ition": 858,
      "▁\"O": 859,
      "ool": 860,
      "▁unt": 861,
      "ual": 862,
      "▁feel": 863,
      "▁\"You": 864,
      "▁quite": 865,
      "▁kind": 866,
      "▁If": 867,
      "▁return": 868,
      "ither": 869,
      "▁four": 870,
      "ced": 871,
      "ple": 872,
      "▁Ch": 873,
      "row": 874,
      "▁char": 875,
      "ired": 876,
      "▁care": 877,
      "ently": 878,
      "cept": 879,
      "▁few": 880,
      "▁min": 881,
      "▁eight": 882,
      "▁rel": 883,
      "most": 884,
      "ros": 885,
      "▁disc": 886,
      "▁love": 887,
      "▁U": 888,
      "▁against": 889,
      "fect": 890,
      "▁cle": 891,
      "▁life": 892,
      "▁vo": 893,
      "ial": 894,
      "▁mother": 895,
      "ained": 896,
      "▁belie": 897,
      "▁course": 898,
      "▁tre": 899,
      "not": 900,
      "▁wa": 901,
      "▁war": 902,
      "▁rest": 903,
      "en,": 904,
      "▁began": 905,
      "▁pa": 906,
      "ener": 907,
      "ling": 908,
      "▁gu": 909,
      "▁each": 910,
      "ia": 911,
      "▁Y": 912,
      "▁exp": 913,
      "▁hel": 914,
      "the": 915,
      "▁knew": 916,
      "ody": 917,
      "▁because": 918,
      "gether": 919,
      "land": 920,
      "▁reg": 921,
      "ning": 922,
      "▁wind": 923,
      "▁For": 924,
      "▁inf": 925,
      "▁Wh": 926,
      "ret": 927,
      "▁better": 928,
      "▁bre": 929,
      "▁\"S": 930,
      "▁enough": 931,
      "▁His": 932,
      "▁ord": 933,
      "▁del": 934,
      "▁hard": 935,
      "▁inc": 936,
      "▁repl": 937,
      "▁ref": 938,
      "ting": 939,
      "▁conf": 940,
      "▁half": 941,
      "oub": 942,
      "▁things": 943,
      "▁\"Y": 944,
      "og": 945,
      "ings": 946,
      "ged": 947,
      "xt": 948,
      "▁pur": 949,
      "▁gave": 950,
      "▁What": 951,
      "▁them.": 952,
      "▁six": 953,
      "ted": 954,
      "▁turned": 955,
      "▁woman": 956,
      "ib": 957,
      "'ll": 958,
      "▁sil": 959,
      "▁ass": 960,
      "▁keep": 961,
      "▁near": 962,
      "ular": 963,
      "▁mo": 964,
      "ited": 965,
      "▁ca": 966,
      "aster": 967,
      "▁felt": 968,
      "▁certain": 969,
      "▁and,": 970,
      "▁cur": 971,
      "▁toward": 972,
      "▁point": 973,
      "▁whole": 974,
      "▁That": 975,
      "ined": 976,
      "▁che": 977,
      "▁matter": 978,
      "▁add": 979,
      "▁Mar": 980,
      "ross": 981,
      "ess,": 982,
      "enty": 983,
      "▁On": 984,
      "ween": 985,
      "▁boy": 986,
      "up": 987,
      "ont": 988,
      "▁home": 989,
      "▁read": 990,
      "▁hour": 991,
      "▁ste": 992,
      "▁does": 993,
      "▁open": 994,
      "▁lar": 995,
      "▁called": 996,
      "▁occ": 997,
      "▁morn": 998,
      "amp": 999,
      "▁inter": 1000,
      "▁until": 1001,
      "▁small": 1002,
      "ER": 1003,
      "aken": 1004,
      "▁mon": 1005,
      "▁fact": 1006,
      "▁you,": 1007,
      "ell,": 1008,
      "full": 1009,
      "▁\"The": 1010,
      "▁bro": 1011,
      "▁them,": 1012,
      "ow,": 1013,
      "▁hum": 1014,
      "or,": 1015,
      "▁eff": 1016,
      "▁help": 1017,
      "ense": 1018,
      "oy": 1019,
      "▁also": 1020,
      "▁stood": 1021,
      "ised": 1022,
      "iet": 1023,
      "▁'I": 1024,
      "▁thir": 1025,
      "▁full": 1026,
      "▁sk": 1027,
      "▁To": 1028,
      "▁best": 1029,
      "ations": 1030,
      "▁between": 1031,
      "▁present": 1032,
      "▁sure": 1033,
      "▁bu": 1034,
      "▁almost": 1035,
      "ason": 1036,
      "▁myself": 1037,
      "oc": 1038,
      "mer": 1039,
      "▁sle": 1040,
      "▁mean": 1041,
      "▁\"It": 1042,
      "?'": 1043,
      "▁ter": 1044,
      "▁ext": 1045,
      "te": 1046,
      "ation,": 1047,
      "▁dear": 1048,
      "oud": 1049,
      "▁Miss": 1050,
      "▁both": 1051,
      "▁herself": 1052,
      "▁cas": 1053,
      "▁quest": 1054,
      "s;": 1055,
      "▁ins": 1056,
      "▁God": 1057,
      "▁spo": 1058,
      "▁el": 1059,
      "▁her,": 1060,
      "vel": 1061,
      "▁\"What": 1062,
      "ung": 1063,
      "▁tra": 1064,
      "ation.": 1065,
      "▁beaut": 1066,
      "▁show": 1067,
      "▁seen": 1068,
      "ier": 1069,
      "▁speak": 1070,
      "▁dark": 1071,
      "ever,": 1072,
      "du": 1073,
      "med": 1074,
      "▁together": 1075,
      "▁met": 1076,
      "pr": 1077,
      "ying": 1078,
      "▁dre": 1079,
      "▁her.": 1080,
      "▁feet": 1081,
      "▁sent": 1082,
      "▁underst": 1083,
      "▁wo": 1084,
      "unt": 1085,
      "▁An": 1086,
      "ity,": 1087,
      "▁brought": 1088,
      "▁aw": 1089,
      "undred": 1090,
      "▁years": 1091,
      "az": 1092,
      "vers": 1093,
      "▁lat": 1094,
      "▁five": 1095,
      "▁Fr": 1096,
      "le,": 1097,
      "erest": 1098,
      "▁fam": 1099,
      "▁ev": 1100,
      "▁col": 1101,
      "▁having": 1102,
      "▁fore": 1103,
      "but": 1104,
      "osed": 1105,
      "ek": 1106,
      "▁stand": 1107,
      "▁next": 1108,
      "dden": 1109,
      "iness": 1110,
      "▁use": 1111,
      "▁fin": 1112,
      "lect": 1113,
      "ached": 1114,
      "▁among": 1115,
      "ern": 1116,
      "ph": 1117,
      "▁(": 1118,
      "▁hundred": 1119,
      "▁bus": 1120,
      "uth": 1121,
      "▁cannot": 1122,
      "▁\"D": 1123,
      "ating": 1124,
      "ident": 1125,
      "▁ask": 1126,
      "▁contin": 1127,
      "▁water": 1128,
      "▁inde": 1129,
      "▁less": 1130,
      "▁sudden": 1131,
      "irect": 1132,
      "aint": 1133,
      "▁talk": 1134,
      "▁nor": 1135,
      "▁twenty": 1136,
      "▁side": 1137,
      "▁hands": 1138,
      "ner": 1139,
      "th,": 1140,
      "ob": 1141,
      "ured": 1142,
      "haps": 1143,
      "▁done": 1144,
      "▁gener": 1145,
      "▁rather": 1146,
      "▁poor": 1147,
      "▁consid": 1148,
      ",'": 1149,
      "▁tri": 1150,
      "ement": 1151,
      "▁vis": 1152,
      "▁cond": 1153,
      "▁looking": 1154,
      "▁high": 1155,
      "▁sim": 1156,
      "▁air": 1157,
      "▁fall": 1158,
      "aid": 1159,
      "▁whom": 1160,
      "▁me.": 1161,
      "▁lay": 1162,
      "▁differe": 1163,
      "▁suff": 1164,
      "▁anything": 1165,
      "a.": 1166,
      "▁hear": 1167,
      "▁start": 1168,
      "▁interest": 1169,
      "▁cried": 1170,
      "▁lau": 1171,
      "▁need": 1172,
      "▁ide": 1173,
      "▁round": 1174,
      "▁Pr": 1175,
      "▁person": 1176,
      "ho": 1177,
      "mb": 1178,
      "ors": 1179,
      "▁sun": 1180,
      "▁fire": 1181,
      "▁adv": 1182,
      "▁sn": 1183,
      "enc": 1184,
      "▁gent": 1185,
      "▁gi": 1186,
      "▁answered": 1187,
      "▁direct": 1188,
      "▁close": 1189,
      "hy": 1190,
      "▁es": 1191,
      "▁eas": 1192,
      "▁Be": 1193,
      "▁Eng": 1194,
      "▁\"M": 1195,
      "lic": 1196,
      "fter": 1197,
      "▁opp": 1198,
      "▁bri": 1199,
      "uring": 1200,
      "ister": 1201,
      "▁till": 1202,
      "▁power": 1203,
      "li": 1204,
      "eter": 1205,
      "ield": 1206,
      "▁land": 1207,
      "▁real": 1208,
      "rist": 1209,
      "fort": 1210,
      "▁doub": 1211,
      "▁large": 1212,
      "arn": 1213,
      "▁black": 1214,
      "▁taken": 1215,
      "ten": 1216,
      "oun": 1217,
      "▁that,": 1218,
      "t,": 1219,
      "▁children": 1220,
      "one,": 1221,
      "app": 1222,
      "▁fear": 1223,
      "▁prom": 1224,
      "▁replied": 1225,
      "▁dep": 1226,
      "▁believe": 1227,
      "▁play": 1228,
      "▁pret": 1229,
      "▁Sir": 1230,
      "▁wif": 1231,
      "▁lad": 1232,
      "▁themsel": 1233,
      "hn": 1234,
      "▁dro": 1235,
      "▁white": 1236,
      "ief": 1237,
      "▁sou": 1238,
      "▁hope": 1239,
      "uc": 1240,
      "▁run": 1241,
      "▁\"But": 1242,
      "▁serv": 1243,
      "▁king": 1244,
      "▁expl": 1245,
      "ity.": 1246,
      "▁wonder": 1247,
      "hind": 1248,
      "▁fif": 1249,
      "▁along": 1250,
      "att": 1251,
      "har": 1252,
      "▁since": 1253,
      "▁ground": 1254,
      "▁said.": 1255,
      "▁however,": 1256,
      "sh": 1257,
      "ison": 1258,
      "!'": 1259,
      "aim": 1260,
      "▁dec": 1261,
      "▁wait": 1262,
      "ery": 1263,
      "ering": 1264,
      "▁All": 1265,
      "raw": 1266,
      "▁unc": 1267,
      "▁minut": 1268,
      "▁expect": 1269,
      "akes": 1270,
      "▁Her": 1271,
      "▁adm": 1272,
      "ies,": 1273,
      "▁pat": 1274,
      "▁gra": 1275,
      "ates": 1276,
      "oll": 1277,
      "▁exc": 1278,
      "▁prin": 1279,
      "ceed": 1280,
      "▁How": 1281,
      "▁letter": 1282,
      "ressed": 1283,
      "▁pol": 1284,
      "▁gre": 1285,
      "▁continu": 1286,
      "ken": 1287,
      "▁inv": 1288,
      "▁plac": 1289,
      "▁hold": 1290,
      "▁itself": 1291,
      "▁behind": 1292,
      "▁book": 1293,
      "▁strong": 1294,
      "ived": 1295,
      "ures": 1296,
      "▁fell": 1297,
      "▁rece": 1298,
      "▁horse": 1299,
      "ure,": 1300,
      "ably": 1301,
      "eared": 1302,
      "▁mone": 1303,
      "ately": 1304,
      "ptain": 1305,
      "▁sound": 1306,
      "to": 1307,
      "ton": 1308,
      "▁\"And": 1309,
      "▁dead": 1310,
      "▁appear": 1311,
      "▁I'm": 1312,
      "ided": 1313,
      "▁def": 1314,
      "▁days": 1315,
      "▁passed": 1316,
      "▁given": 1317,
      "▁cor": 1318,
      "fully": 1319,
      "▁law": 1320,
      "e,\"": 1321,
      "▁short": 1322,
      "ousand": 1323,
      "▁quick": 1324,
      "bit": 1325,
      "▁compan": 1326,
      "▁deep": 1327,
      "▁understand": 1328,
      "▁ang": 1329,
      "ers,": 1330,
      "▁thousand": 1331,
      "ars": 1332,
      "ance,": 1333,
      "umb": 1334,
      "ific": 1335,
      "▁remem": 1336,
      "empt": 1337,
      "ention": 1338,
      "ene": 1339,
      "▁often": 1340,
      "▁prop": 1341,
      "over": 1342,
      "▁leave": 1343,
      "▁name": 1344,
      "▁least": 1345,
      "▁wish": 1346,
      "▁spr": 1347,
      "▁gentle": 1348,
      "iful": 1349,
      "▁dri": 1350,
      "ange": 1351,
      "HA": 1352,
      "teen": 1353,
      "▁second": 1354,
      "▁clear": 1355,
      "▁brother": 1356,
      "ence,": 1357,
      "'re": 1358,
      "uff": 1359,
      "or.": 1360,
      "▁Ar": 1361,
      "▁obs": 1362,
      "be": 1363,
      "ug": 1364,
      "▁After": 1365,
      "▁mil": 1366,
      "▁cir": 1367,
      "irit": 1368,
      "▁possible": 1369,
      "▁fur": 1370,
      "alked": 1371,
      "▁around": 1372,
      "al,": 1373,
      "▁bit": 1374,
      "ient": 1375,
      "▁One": 1376,
      "ale": 1377,
      "▁words": 1378,
      "used": 1379,
      "▁can't": 1380,
      "TER": 1381,
      "▁big": 1382,
      "▁reason": 1383,
      "▁di": 1384,
      "▁appro": 1385,
      "▁cat": 1386,
      "illed": 1387,
      "nce": 1388,
      "▁man,": 1389,
      "▁pri": 1390,
      "▁cut": 1391,
      "▁hur": 1392,
      "ash": 1393,
      "▁aff": 1394,
      "▁bur": 1395,
      "▁abs": 1396,
      "▁foot": 1397,
      "▁mount": 1398,
      "ird": 1399,
      "ized": 1400,
      "▁swe": 1401,
      "▁morning": 1402,
      "-w": 1403,
      "▁meet": 1404,
      "▁death": 1405,
      "▁ill": 1406,
      "▁hon": 1407,
      "▁really": 1408,
      "▁art": 1409,
      "▁necess": 1410,
      "▁mis": 1411,
      "▁Br": 1412,
      "▁step": 1413,
      "▁sir": 1414,
      "▁sign": 1415,
      "▁wood": 1416,
      "▁\"That": 1417,
      "▁held": 1418,
      "▁time,": 1419,
      "▁perfect": 1420,
      "erc": 1421,
      "▁Ind": 1422,
      "▁kept": 1423,
      "▁TH": 1424,
      "▁ten": 1425,
      "orrow": 1426,
      "▁else": 1427,
      "▁sight": 1428,
      "▁With": 1429,
      "ins": 1430,
      "▁sing": 1431,
      "▁sort": 1432,
      "▁red": 1433,
      "ching": 1434,
      "▁became": 1435,
      "▁exper": 1436,
      "▁therefore": 1437,
      "▁doubt": 1438,
      "▁walk": 1439,
      "erv": 1440,
      "eng": 1441,
      "▁Al": 1442,
      "iew": 1443,
      "▁human": 1444,
      "▁question": 1445,
      "▁used": 1446,
      "▁sleep": 1447,
      "ught": 1448,
      "▁fort": 1449,
      "▁ra": 1450,
      "▁ship": 1451,
      "▁alre": 1452,
      "▁past": 1453,
      "▁sto": 1454,
      "▁Un": 1455,
      "▁ed": 1456,
      "▁\"C": 1457,
      "▁object": 1458,
      "▁'W": 1459,
      "▁No": 1460,
      "ry,": 1461,
      "▁fellow": 1462,
      "▁bes": 1463,
      "▁gone": 1464,
      "▁whose": 1465,
      "ually": 1466,
      "▁circ": 1467,
      "▁lost": 1468,
      "cri": 1469,
      "▁I'll": 1470,
      "on.": 1471,
      "▁spirit": 1472,
      "ice,": 1473,
      "ump": 1474,
      "▁then,": 1475,
      "▁\"Oh,": 1476,
      "-\"": 1477,
      "acter": 1478,
      "cious": 1479,
      "▁.": 1480,
      "one.": 1481,
      "▁CHA": 1482,
      "▁excl": 1483,
      "▁intell": 1484,
      "als": 1485,
      "▁cent": 1486,
      "▁sy": 1487,
      "▁fair": 1488,
      "▁coming": 1489,
      "▁table": 1490,
      "owed": 1491,
      "▁surpr": 1492,
      "▁bad": 1493,
      "▁day,": 1494,
      "▁character": 1495,
      "▁pie": 1496,
      "ure.": 1497,
      "▁voice": 1498,
      "that": 1499,
      "▁didn't": 1500,
      "▁different": 1501,
      "ows": 1502,
      "▁diffic": 1503,
      "▁cold": 1504,
      "▁comple": 1505,
      "▁My": 1506,
      "▁proper": 1507,
      "me": 1508,
      "ude": 1509,
      "bed": 1510,
      "▁town": 1511,
      "▁sever": 1512,
      "ric": 1513,
      "▁const": 1514,
      "anger": 1515,
      "lish": 1516,
      "▁quiet": 1517,
      "▁beautiful": 1518,
      "ces": 1519,
      "▁fre": 1520,
      "▁either": 1521,
      "olut": 1522,
      "ublic": 1523,
      "▁themselves": 1524,
      "-and": 1525,
      "in,": 1526,
      "▁sch": 1527,
      "▁known": 1528,
      "▁towards": 1529,
      "▁creat": 1530,
      "▁\"G": 1531,
      "▁effect": 1532,
      "▁fa": 1533,
      "ome,": 1534,
      "▁gold": 1535,
      "▁master": 1536,
      "et,": 1537,
      "▁wall": 1538,
      "ouble": 1539,
      "▁bring": 1540,
      "no": 1541,
      "▁why": 1542,
      "▁dream": 1543,
      "▁equ": 1544,
      "ains": 1545,
      "ative": 1546,
      "▁spoke": 1547,
      "▁reached": 1548,
      "iled": 1549,
      "▁you.": 1550,
      "s,\"": 1551,
      "ate,": 1552,
      "par": 1553,
      "ent,": 1554,
      "▁anim": 1555,
      "▁already": 1556,
      "▁CHAP": 1557,
      "▁CHAPTER": 1558,
      "▁ir": 1559,
      "▁Bl": 1560,
      "ham": 1561,
      "▁dem": 1562,
      "▁live": 1563,
      "▁above": 1564,
      "▁leg": 1565,
      "▁begin": 1566,
      "▁returned": 1567,
      "body": 1568,
      "▁THE": 1569,
      "▁Is": 1570,
      "▁requ": 1571,
      "▁bar": 1572,
      "▁country": 1573,
      "▁par": 1574,
      "Qu": 1575,
      "▁hus": 1576,
      "ask": 1577,
      "▁sum": 1578,
      "▁again.": 1579,
      "-the": 1580,
      "▁making": 1581,
      "▁sid": 1582,
      "▁able": 1583,
      "▁mist": 1584,
      "▁list": 1585,
      "imes": 1586,
      "'ve": 1587,
      "▁forg": 1588,
      "ch,": 1589,
      "▁several": 1590,
      "▁john": 1591,
      "▁cap": 1592,
      "▁within": 1593,
      "▁learn": 1594,
      "ience": 1595,
      "▁possess": 1596,
      "▁mus": 1597,
      "▁exist": 1598,
      "▁tou": 1599,
      "▁squ": 1600,
      "▁ought": 1601,
      "th.": 1602,
      "▁across": 1603,
      "▁\"He": 1604,
      "▁eighteen": 1605,
      "▁sit": 1606,
      "▁thus": 1607,
      "▁means": 1608,
      "pend": 1609,
      "▁partic": 1610,
      "▁Christ": 1611,
      "▁soul": 1612,
      "▁mag": 1613,
      "▁consider": 1614,
      "▁Now": 1615,
      "cial": 1616,
      "▁daught": 1617,
      "▁week": 1618,
      "▁\"Yes,": 1619,
      "▁become": 1620,
      "ead": 1621,
      "▁grow": 1622,
      "▁glad": 1623,
      "use": 1624,
      "▁succ": 1625,
      "▁visit": 1626,
      "of": 1627,
      "ance.": 1628,
      "▁\"Well,": 1629,
      "▁regard": 1630,
      "ey": 1631,
      "▁mid": 1632,
      "▁nam": 1633,
      "▁prof": 1634,
      "▁again,": 1635,
      "▁subject": 1636,
      "▁it's": 1637,
      "▁ran": 1638,
      "▁express": 1639,
      "▁soft": 1640,
      "ities": 1641,
      "▁up,": 1642,
      "▁imag": 1643,
      "ended": 1644,
      "▁respect": 1645,
      "▁lead": 1646,
      "▁Lord": 1647,
      "▁esc": 1648,
      "le.": 1649,
      "▁dev": 1650,
      "▁whether": 1651,
      "ec": 1652,
      "▁eat": 1653,
      "ay,": 1654,
      "▁Car": 1655,
      "band": 1656,
      "ract": 1657,
      "isf": 1658,
      "▁wife": 1659,
      "▁num": 1660,
      "▁conc": 1661,
      "eas": 1662,
      "ane": 1663,
      "▁\"L": 1664,
      "ets": 1665,
      "▁now,": 1666,
      "gin": 1667,
      "king": 1668,
      "▁dog": 1669,
      "▁body": 1670,
      "▁move": 1671,
      "▁Con": 1672,
      "▁bed": 1673,
      "▁was,": 1674,
      "eth": 1675,
      "▁perhaps": 1676,
      "▁pal": 1677,
      "▁\"P": 1678,
      "though": 1679,
      "▁arri": 1680,
      "▁pain": 1681,
      "▁Gr": 1682,
      "▁fight": 1683,
      "▁is,": 1684,
      "ction": 1685,
      "age,": 1686,
      "▁purp": 1687,
      "▁pos": 1688,
      "▁tem": 1689,
      "▁mod": 1690,
      "▁won't": 1691,
      "▁view": 1692,
      "▁Tom": 1693,
      "▁break": 1694,
      "▁est": 1695,
      "▁dest": 1696,
      "▁others": 1697,
      "▁natur": 1698,
      "▁ut": 1699,
      "ents": 1700,
      "▁appeared": 1701,
      "▁fine": 1702,
      "▁carried": 1703,
      "▁road": 1704,
      "▁tried": 1705,
      "▁shad": 1706,
      "▁mere": 1707,
      "▁cast": 1708,
      "▁corn": 1709,
      "▁Sc": 1710,
      "▁husband": 1711,
      "▁disapp": 1712,
      "▁decl": 1713,
      "hil": 1714,
      "▁Qu": 1715,
      "owd": 1716,
      "▁out,": 1717,
      "▁money": 1718,
      "▁sister": 1719,
      "▁fail": 1720,
      "ice.": 1721,
      "▁Nor": 1722,
      "▁nin": 1723,
      "▁flo": 1724,
      "▁particular": 1725,
      "▁fig": 1726,
      "▁hair": 1727,
      "▁account": 1728,
      "▁during": 1729,
      "▁public": 1730,
      "itting": 1731,
      "▁Do": 1732,
      "▁Not": 1733,
      "▁strange": 1734,
      "▁\"We": 1735,
      "▁women": 1736,
      "ov": 1737,
      "ee": 1738,
      "▁'T": 1739,
      "▁coll": 1740,
      "▁These": 1741,
      "▁Cl": 1742,
      "▁leav": 1743,
      "for": 1744,
      "urd": 1745,
      "▁except": 1746,
      "▁New": 1747,
      "ef": 1748,
      "▁produ": 1749,
      "cul": 1750,
      "▁win": 1751,
      "'d": 1752,
      "ugg": 1753,
      "▁stay": 1754,
      "▁sal": 1755,
      "▁fav": 1756,
      "▁slow": 1757,
      "by": 1758,
      "ness,": 1759,
      "▁taking": 1760,
      "▁school": 1761,
      "▁din": 1762,
      "▁saf": 1763,
      "▁too,": 1764,
      "old": 1765,
      "▁satisf": 1766,
      "▁order": 1767,
      "▁followed": 1768,
      "▁bird": 1769,
      "an,": 1770,
      "▁bear": 1771,
      "al.": 1772,
      "raid": 1773,
      "▁prov": 1774,
      "meric": 1775,
      "▁breat": 1776,
      "ote": 1777,
      "▁ready": 1778,
      "ments": 1779,
      "▁month": 1780,
      "men": 1781,
      "▁pretty": 1782,
      "ev": 1783,
      "▁Americ": 1784,
      "▁Ca": 1785,
      "▁carry": 1786,
      "▁wild": 1787,
      "▁import": 1788,
      "▁forward": 1789,
      "ax": 1790,
      "outh": 1791,
      "ushed": 1792,
      "▁times": 1793,
      "medi": 1794,
      "▁exclaim": 1795,
      "▁cal": 1796,
      "lled": 1797,
      "ment,": 1798,
      "▁everything": 1799,
      "tered": 1800,
      "▁mad": 1801,
      "▁fac": 1802,
      "▁sold": 1803,
      "arent": 1804,
      "us,": 1805,
      "▁sens": 1806,
      "ann": 1807,
      "▁true": 1808,
      "uss": 1809,
      "ives": 1810,
      "▁suppose": 1811,
      "▁window": 1812,
      "where": 1813,
      "▁bod": 1814,
      "▁front": 1815,
      "▁hot": 1816,
      "▁all,": 1817,
      "▁this,": 1818,
      "▁rock": 1819,
      "▁bright": 1820,
      "vern": 1821,
      "▁seven": 1822,
      "▁jud": 1823,
      "▁enc": 1824,
      "▁nature": 1825,
      "▁English": 1826,
      "▁hung": 1827,
      "▁sus": 1828,
      "ks": 1829,
      "tern": 1830,
      "▁rid": 1831,
      "▁rose": 1832,
      "▁paper": 1833,
      "▁case": 1834,
      "itted": 1835,
      "▁pract": 1836,
      "▁offic": 1837,
      "at,": 1838,
      "ants": 1839,
      "▁common": 1840,
      "▁success": 1841,
      "▁draw": 1842,
      "▁heav": 1843,
      "▁stra": 1844,
      "▁stud": 1845,
      "▁eng": 1846,
      "▁river": 1847,
      "▁laugh": 1848,
      "▁disp": 1849,
      "▁secret": 1850,
      "▁suddenly": 1851,
      "▁walked": 1852,
      "▁ele": 1853,
      "▁trans": 1854,
      "▁entered": 1855,
      "▁wanted": 1856,
      "▁fast": 1857,
      "▁dut": 1858,
      "▁princi": 1859,
      "▁prot": 1860,
      "aven": 1861,
      "ism": 1862,
      "▁afraid": 1863,
      "uit": 1864,
      "aged": 1865,
      "▁ap": 1866,
      "▁doct": 1867,
      "▁occas": 1868,
      "dd": 1869,
      "▁top": 1870,
      "ship": 1871,
      "br": 1872,
      "▁sho": 1873,
      "uct": 1874,
      "▁exam": 1875,
      "▁business": 1876,
      "irt": 1877,
      "▁clot": 1878,
      "k,": 1879,
      "▁hop": 1880,
      "▁one,": 1881,
      "▁self": 1882,
      "▁there,": 1883,
      "▁son": 1884,
      "▁camp": 1885,
      "▁smo": 1886,
      "ge,": 1887,
      "▁time.": 1888,
      "▁tear": 1889,
      "▁cross": 1890,
      "▁scar": 1891,
      "▁difficult": 1892,
      "inct": 1893,
      "▁Ed": 1894,
      "ment.": 1895,
      "▁accom": 1896,
      "es;": 1897,
      "ush": 1898,
      "▁King": 1899,
      "▁night,": 1900,
      "▁instant": 1901,
      "▁Sp": 1902,
      "ence.": 1903,
      "▁idea": 1904,
      "inc": 1905,
      "▁comfort": 1906,
      "▁opened": 1907,
      "▁pict": 1908,
      "▁low": 1909,
      "ain,": 1910,
      "▁yourself": 1911,
      "ike": 1912,
      "▁mot": 1913,
      "▁sevent": 1914,
      "▁I've": 1915,
      "▁delight": 1916,
      "read": 1917,
      "gr": 1918,
      "▁stri": 1919,
      "▁affect": 1920,
      "form": 1921,
      "you": 1922,
      "▁free": 1923,
      "ions,": 1924,
      "▁ris": 1925,
      "▁result": 1926,
      "enn": 1927,
      "▁command": 1928,
      "▁truth": 1929,
      "aj": 1930,
      "▁sense": 1931,
      "▁cre": 1932,
      "arr": 1933,
      "▁entire": 1934,
      "ster": 1935,
      "let": 1936,
      "▁Of": 1937,
      "▁immedi": 1938,
      "▁acqu": 1939,
      "▁ve": 1940,
      "▁worth": 1941,
      "▁says": 1942,
      "▁number": 1943,
      "-I": 1944,
      "ies.": 1945,
      "ety": 1946,
      "rupt": 1947,
      "▁pay": 1948,
      "ilt": 1949,
      "▁var": 1950,
      "▁trouble": 1951,
      "oint": 1952,
      "itut": 1953,
      "▁det": 1954,
      "▁repe": 1955,
      "▁Let": 1956,
      "▁quar": 1957,
      "▁blood": 1958,
      "▁feeling": 1959,
      "iar": 1960,
      "ility": 1961,
      "▁attempt": 1962,
      "mon": 1963,
      "reas": 1964,
      "▁caught": 1965,
      "▁cause": 1966,
      "▁gard": 1967,
      "▁grew": 1968,
      "▁earth": 1969,
      "▁writ": 1970,
      "-a": 1971,
      "ON": 1972,
      "▁happy": 1973,
      "▁Per": 1974,
      "▁lab": 1975,
      "▁sad": 1976,
      "hant": 1977,
      "▁led": 1978,
      "▁field": 1979,
      "▁sugg": 1980,
      "▁suggest": 1981,
      "overed": 1982,
      "ats": 1983,
      "▁hat": 1984,
      "▁hast": 1985,
      "iment": 1986,
      "▁Will": 1987,
      "▁continued": 1988,
      "icked": 1989,
      "iver": 1990,
      "▁hand,": 1991,
      "▁himself,": 1992,
      "▁terri": 1993,
      "urch": 1994,
      "▁chair": 1995,
      "...": 1996,
      "▁purpose": 1997,
      "▁tru": 1998,
      "▁remain": 1999,
      "ghed": 2000,
      "ored": 2001,
      "▁one.": 2002,
      "▁alone": 2003,
      "▁seems": 2004,
      "alth": 2005,
      "ift": 2006,
      "ances": 2007,
      "ines": 2008,
      "▁El": 2009,
      "▁bott": 2010,
      "▁cry": 2011,
      "▁anx": 2012,
      "▁try": 2013,
      "ording": 2014,
      "▁bank": 2015,
      "▁bene": 2016,
      "▁us,": 2017,
      "▁answer": 2018,
      "▁grand": 2019,
      "ime": 2020,
      "ally,": 2021,
      "▁laid": 2022,
      "▁\"and": 2023,
      "et.": 2024,
      "▁star": 2025,
      "▁By": 2026,
      "▁say,": 2027,
      "▁lady": 2028,
      "▁drew": 2029,
      "▁thirty": 2030,
      "mp": 2031,
      "▁div": 2032,
      "▁shar": 2033,
      "▁hill": 2034,
      "▁meant": 2035,
      "▁streng": 2036,
      "▁build": 2037,
      "▁general": 2038,
      "▁Captain": 2039,
      "▁received": 2040,
      "▁Indian": 2041,
      "▁treat": 2042,
      "▁struck": 2043,
      "▁smile": 2044,
      "ledge": 2045,
      "▁opin": 2046,
      "▁nearly": 2047
    },
    "merges": [
      [
        "▁",
        "t"
      ],
      [
        "h",
        "e"
      ],
      [
        "▁",
        "a"
      ],
      [
        "i",
        "n"
      ],
      [
        "▁t",
        "he"
      ],
      [
        "▁",
        "s"
      ],
      [
        "▁",
        "w"
      ],
      [
        "▁",
        "o"
      ],
      [
        "r",
        "e"
      ],
      [
        "n",
        "d"
      ],
      [
        "e",
        "r"
      ],
      [
        "h",
        "a"
      ],
      [
        "▁",
        "b"
      ],
      [
        "o",
        "u"
      ],
      [
        "e",
        "d"
      ],
      [
        "▁",
        "m"
      ],
      [
        "i",
        "t"
      ],
      [
        "▁",
        "f"
      ],
      [
        "i",
        "s"
      ],
      [
        "▁",
        "c"
      ],
      [
        "e",
        "n"
      ],
      [
        "o",
        "n"
      ],
      [
        "▁t",
        "o"
      ],
      [
        "▁o",
        "f"
      ],
      [
        "▁a",
        "nd"
      ],
      [
        "in",
        "g"
      ],
      [
        "o",
        "r"
      ],
      [
        "▁",
        "d"
      ],
      [
        "▁",
        "p"
      ],
      [
        "e",
        "s"
      ],
      [
        "l",
        "l"
      ],
      [
        "▁",
        "h"
      ],
      [
        "a",
        "s"
      ],
      [
        "a",
        "r"
      ],
      [
        "▁",
        "in"
      ],
      [
        "▁",
        "he"
      ],
      [
        "▁",
        "l"
      ],
      [
        "a",
        "n"
      ],
      [
        "a",
        "t"
      ],
      [
        "▁",
        "n"
      ],
      [
        "▁",
        "ha"
      ],
      [
        "o",
        "m"
      ],
      [
        "▁",
        "I"
      ],
      [
        "▁",
        "g"
      ],
      [
        "▁b",
        "e"
      ],
      [
        "ha",
        "t"
      ],
      [
        "l",
        "e"
      ],
      [
        "o",
        "t"
      ],
      [
        "u",
        "t"
      ],
      [
        "▁",
        "e"
      ],
      [
        "▁",
        "\""
      ],
      [
        "i",
        "c"
      ],
      [
        "o",
        "w"
      ],
      [
        "i",
        "d"
      ],
      [
        "l",
        "d"
      ],
      [
        "l",
        "y"
      ],
      [
        "i",
        "m"
      ],
      [
        "▁w",
        "as"
      ],
      [
        "▁t",
        "h"
      ],
      [
        "v",
        "e"
      ],
      [
        "s",
        "t"
      ],
      [
        "s",
        "e"
      ],
      [
        "▁",
        "y"
      ],
      [
        "▁",
        "T"
      ],
      [
        "g",
        "h"
      ],
      [
        "en",
        "t"
      ],
      [
        "▁",
        "it"
      ],
      [
        "▁t",
        "hat"
      ],
      [
        "▁",
        "re"
      ],
      [
        "▁o",
        "n"
      ],
      [
        "c",
        "e"
      ],
      [
        "▁",
        "u"
      ],
      [
        "e",
        "t"
      ],
      [
        "i",
        "on"
      ],
      [
        "▁y",
        "ou"
      ],
      [
        "v",
        "er"
      ],
      [
        "a",
        "l"
      ],
      [
        "i",
        "r"
      ],
      [
        "it",
        "h"
      ],
      [
        "a",
        "y"
      ],
      [
        "▁f",
        "or"
      ],
      [
        "▁a",
        "s"
      ],
      [
        "▁h",
        "is"
      ],
      [
        "▁w",
        "h"
      ],
      [
        "▁w",
        "ith"
      ],
      [
        "▁s",
        "t"
      ],
      [
        "▁w",
        "e"
      ],
      [
        "gh",
        "t"
      ],
      [
        "u",
        "r"
      ],
      [
        "a",
        "d"
      ],
      [
        "r",
        "o"
      ],
      [
        "▁T",
        "he"
      ],
      [
        "a",
        "c"
      ],
      [
        "▁",
        "is"
      ],
      [
        "▁n",
        "ot"
      ],
      [
        "s",
        ","
      ],
      [
        "▁ha",
        "d"
      ],
      [
        "he",
        "r"
      ],
      [
        "r",
        "i"
      ],
      [
        "▁a",
        "n"
      ],
      [
        "▁",
        "A"
      ],
      [
        "▁he",
        "r"
      ],
      [
        "o",
        "o"
      ],
      [
        "ou",
        "ld"
      ],
      [
        "a",
        "m"
      ],
      [
        "▁",
        "S"
      ],
      [
        "t",
        "er"
      ],
      [
        "▁a",
        "t"
      ],
      [
        "k",
        "e"
      ],
      [
        "▁",
        "H"
      ],
      [
        "i",
        "ll"
      ],
      [
        "i",
        "f"
      ],
      [
        "▁s",
        "e"
      ],
      [
        "e",
        ","
      ],
      [
        "▁s",
        "a"
      ],
      [
        "a",
        "in"
      ],
      [
        "▁h",
        "im"
      ],
      [
        "c",
        "t"
      ],
      [
        "re",
        "d"
      ],
      [
        "c",
        "h"
      ],
      [
        "▁",
        "B"
      ],
      [
        "▁s",
        "u"
      ],
      [
        "▁s",
        "he"
      ],
      [
        "i",
        "l"
      ],
      [
        "'",
        "s"
      ],
      [
        ".",
        "\""
      ],
      [
        "▁s",
        "o"
      ],
      [
        "▁m",
        "e"
      ],
      [
        "p",
        "p"
      ],
      [
        "o",
        "re"
      ],
      [
        "i",
        "ght"
      ],
      [
        "▁",
        "r"
      ],
      [
        "▁b",
        "ut"
      ],
      [
        "a",
        "ll"
      ],
      [
        "es",
        "s"
      ],
      [
        "▁",
        "k"
      ],
      [
        "▁d",
        "e"
      ],
      [
        "▁ha",
        "ve"
      ],
      [
        "▁",
        "W"
      ],
      [
        "▁f",
        "r"
      ],
      [
        "▁",
        "C"
      ],
      [
        "ic",
        "h"
      ],
      [
        "om",
        "e"
      ],
      [
        "u",
        "l"
      ],
      [
        "q",
        "u"
      ],
      [
        "▁a",
        "ll"
      ],
      [
        "▁u",
        "p"
      ],
      [
        "▁b",
        "y"
      ],
      [
        "▁c",
        "on"
      ],
      [
        "▁sa",
        "id"
      ],
      [
        "▁",
        "M"
      ],
      [
        "▁m",
        "y"
      ],
      [
        "▁d",
        "o"
      ],
      [
        "▁the",
        "y"
      ],
      [
        "s",
        "."
      ],
      [
        "t",
        "h"
      ],
      [
        "▁n",
        "e"
      ],
      [
        "a",
        "nd"
      ],
      [
        "▁s",
        "h"
      ],
      [
        "▁wh",
        "ich"
      ],
      [
        "p",
        "e"
      ],
      [
        "▁e",
        "x"
      ],
      [
        "▁we",
        "re"
      ],
      [
        "▁fr",
        "om"
      ],
      [
        "▁th",
        "is"
      ],
      [
        "es",
        "t"
      ],
      [
        "▁w",
        "he"
      ],
      [
        "a",
        "g"
      ],
      [
        "u",
        "st"
      ],
      [
        "b",
        "le"
      ],
      [
        "y",
        ","
      ],
      [
        "n",
        "t"
      ],
      [
        "▁o",
        "r"
      ],
      [
        "ar",
        "d"
      ],
      [
        "an",
        "t"
      ],
      [
        "u",
        "s"
      ],
      [
        "at",
        "ion"
      ],
      [
        "re",
        "s"
      ],
      [
        "▁H",
        "e"
      ],
      [
        "▁f",
        "e"
      ],
      [
        "▁the",
        "m"
      ],
      [
        "▁on",
        "e"
      ],
      [
        ",",
        "\""
      ],
      [
        "ou",
        "r"
      ],
      [
        "l",
        "f"
      ],
      [
        "▁",
        "v"
      ],
      [
        "▁m",
        "an"
      ],
      [
        "▁in",
        "t"
      ],
      [
        "▁l",
        "i"
      ],
      [
        "e",
        "m"
      ],
      [
        "ver",
        "y"
      ],
      [
        "is",
        "t"
      ],
      [
        "oo",
        "d"
      ],
      [
        "▁",
        "P"
      ],
      [
        "ou",
        "t"
      ],
      [
        "▁a",
        "l"
      ],
      [
        "o",
        "s"
      ],
      [
        "▁a",
        "re"
      ],
      [
        "▁wh",
        "o"
      ],
      [
        "ou",
        "s"
      ],
      [
        "in",
        "d"
      ],
      [
        "e",
        "."
      ],
      [
        "ar",
        "t"
      ],
      [
        "ed",
        ","
      ],
      [
        "as",
        "t"
      ],
      [
        "▁n",
        "o"
      ],
      [
        "on",
        "g"
      ],
      [
        "▁o",
        "ut"
      ],
      [
        "▁w",
        "ould"
      ],
      [
        "▁k",
        "n"
      ],
      [
        "'",
        "t"
      ],
      [
        "a",
        "k"
      ],
      [
        "▁c",
        "om"
      ],
      [
        "ou",
        "nd"
      ],
      [
        "▁the",
        "re"
      ],
      [
        "o",
        "l"
      ],
      [
        "▁the",
        "ir"
      ],
      [
        "r",
        "a"
      ],
      [
        "▁w",
        "or"
      ],
      [
        "am",
        "e"
      ],
      [
        "▁a",
        "b"
      ],
      [
        "k",
        "ed"
      ],
      [
        "es",
        ","
      ],
      [
        "▁",
        "j"
      ],
      [
        "▁l",
        "e"
      ],
      [
        "u",
        "n"
      ],
      [
        "?",
        "\""
      ],
      [
        "▁\"",
        "I"
      ],
      [
        "u",
        "m"
      ],
      [
        "i",
        "g"
      ],
      [
        "▁w",
        "ill"
      ],
      [
        "it",
        "t"
      ],
      [
        "p",
        "t"
      ],
      [
        "ha",
        "n"
      ],
      [
        "i",
        "ve"
      ],
      [
        "ou",
        "gh"
      ],
      [
        "i",
        "e"
      ],
      [
        "▁",
        "'"
      ],
      [
        "▁g",
        "o"
      ],
      [
        "▁be",
        "en"
      ],
      [
        "▁",
        "F"
      ],
      [
        "▁",
        "D"
      ],
      [
        "e",
        "l"
      ],
      [
        "▁",
        "L"
      ],
      [
        "▁p",
        "l"
      ],
      [
        "e",
        "ll"
      ],
      [
        "ow",
        "n"
      ],
      [
        "re",
        "at"
      ],
      [
        "se",
        "lf"
      ],
      [
        "▁",
        "G"
      ],
      [
        "v",
        "en"
      ],
      [
        "he",
        "d"
      ],
      [
        "ac",
        "k"
      ],
      [
        "or",
        "t"
      ],
      [
        "u",
        "re"
      ],
      [
        "▁p",
        "ro"
      ],
      [
        "er",
        "s"
      ],
      [
        "▁c",
        "ould"
      ],
      [
        "▁a",
        "g"
      ],
      [
        "▁whe",
        "n"
      ],
      [
        "a",
        "ce"
      ],
      [
        "a",
        "ke"
      ],
      [
        "▁",
        "qu"
      ],
      [
        "o",
        "st"
      ],
      [
        "t",
        "her"
      ],
      [
        "▁t",
        "r"
      ],
      [
        "at",
        "e"
      ],
      [
        "▁",
        "N"
      ],
      [
        "▁s",
        "p"
      ],
      [
        "▁I",
        "t"
      ],
      [
        "c",
        "k"
      ],
      [
        "▁",
        "O"
      ],
      [
        "▁t",
        "w"
      ],
      [
        "▁w",
        "hat"
      ],
      [
        "o",
        "p"
      ],
      [
        "y",
        "."
      ],
      [
        "▁c",
        "an"
      ],
      [
        "ed",
        "."
      ],
      [
        "▁a",
        "f"
      ],
      [
        "▁t",
        "im"
      ],
      [
        "▁",
        "E"
      ],
      [
        "▁",
        "ro"
      ],
      [
        "▁",
        "if"
      ],
      [
        "▁int",
        "o"
      ],
      [
        "a",
        "u"
      ],
      [
        "h",
        "ing"
      ],
      [
        "▁u",
        "n"
      ],
      [
        "e",
        "ct"
      ],
      [
        "o",
        "d"
      ],
      [
        "▁B",
        "ut"
      ],
      [
        "▁a",
        "r"
      ],
      [
        "▁an",
        "y"
      ],
      [
        "o",
        "se"
      ],
      [
        "▁p",
        "r"
      ],
      [
        "▁you",
        "r"
      ],
      [
        "e",
        "p"
      ],
      [
        "nd",
        "er"
      ],
      [
        "on",
        "e"
      ],
      [
        "a",
        "re"
      ],
      [
        "▁s",
        "ome"
      ],
      [
        "▁m",
        "ore"
      ],
      [
        "g",
        "e"
      ],
      [
        "oo",
        "k"
      ],
      [
        "itt",
        "le"
      ],
      [
        "▁c",
        "l"
      ],
      [
        "▁d",
        "id"
      ],
      [
        "e",
        "red"
      ],
      [
        "w",
        "ay"
      ],
      [
        "▁m",
        "r"
      ],
      [
        "ur",
        "n"
      ],
      [
        "ou",
        "ght"
      ],
      [
        "f",
        "ore"
      ],
      [
        "▁l",
        "ittle"
      ],
      [
        "▁to",
        "o"
      ],
      [
        "▁",
        "R"
      ],
      [
        "▁li",
        "ke"
      ],
      [
        "▁",
        "very"
      ],
      [
        "in",
        "k"
      ],
      [
        "▁b",
        "r"
      ],
      [
        "▁d",
        "is"
      ],
      [
        "en",
        "ce"
      ],
      [
        "▁a",
        "m"
      ],
      [
        "▁o",
        "ther"
      ],
      [
        "c",
        "i"
      ],
      [
        "▁g",
        "r"
      ],
      [
        "▁ab",
        "out"
      ],
      [
        "p",
        "l"
      ],
      [
        "ot",
        "her"
      ],
      [
        "a",
        "ble"
      ],
      [
        "ing",
        ","
      ],
      [
        "p",
        "er"
      ],
      [
        "▁",
        "im"
      ],
      [
        "c",
        "c"
      ],
      [
        "▁d",
        "ay"
      ],
      [
        "!",
        "\""
      ],
      [
        "▁",
        "en"
      ],
      [
        "v",
        "ed"
      ],
      [
        "▁kn",
        "ow"
      ],
      [
        "it",
        "e"
      ],
      [
        "▁c",
        "o"
      ],
      [
        "id",
        "e"
      ],
      [
        "▁A",
        "nd"
      ],
      [
        "▁o",
        "ver"
      ],
      [
        "▁s",
        "ha"
      ],
      [
        "▁c",
        "h"
      ],
      [
        "r",
        "y"
      ],
      [
        "▁t",
        "han"
      ],
      [
        "as",
        "s"
      ],
      [
        "an",
        "ce"
      ],
      [
        "a",
        "b"
      ],
      [
        "it",
        "y"
      ],
      [
        "e",
        "ar"
      ],
      [
        "▁",
        "J"
      ],
      [
        "is",
        "h"
      ],
      [
        "▁the",
        "n"
      ],
      [
        "▁g",
        "reat"
      ],
      [
        "▁ag",
        "ain"
      ],
      [
        "ic",
        "k"
      ],
      [
        "▁\"",
        "W"
      ],
      [
        "i",
        "re"
      ],
      [
        "f",
        "f"
      ],
      [
        "▁up",
        "on"
      ],
      [
        "▁ha",
        "s"
      ],
      [
        "▁a",
        "d"
      ],
      [
        "w",
        "n"
      ],
      [
        "m",
        "ent"
      ],
      [
        "ad",
        "e"
      ],
      [
        "u",
        "d"
      ],
      [
        "▁n",
        "ow"
      ],
      [
        "▁u",
        "s"
      ],
      [
        "at",
        "her"
      ],
      [
        "▁f",
        "l"
      ],
      [
        "ou",
        "nt"
      ],
      [
        "er",
        ","
      ],
      [
        "▁ha",
        "nd"
      ],
      [
        "▁on",
        "ly"
      ],
      [
        "▁b",
        "l"
      ],
      [
        "e",
        "nd"
      ],
      [
        "▁af",
        "ter"
      ],
      [
        "es",
        "."
      ],
      [
        "▁se",
        "e"
      ],
      [
        "▁sh",
        "ould"
      ],
      [
        "re",
        "e"
      ],
      [
        "▁it",
        "s"
      ],
      [
        "▁p",
        "er"
      ],
      [
        "n",
        "g"
      ],
      [
        "▁a",
        "pp"
      ],
      [
        "▁m",
        "ust"
      ],
      [
        "▁d",
        "own"
      ],
      [
        "▁b",
        "o"
      ],
      [
        "▁S",
        "he"
      ],
      [
        "▁tw",
        "o"
      ],
      [
        "▁g",
        "ood"
      ],
      [
        "▁\"",
        "T"
      ],
      [
        "▁p",
        "o"
      ],
      [
        "▁of",
        "f"
      ],
      [
        "u",
        "ch"
      ],
      [
        "a",
        "p"
      ],
      [
        "all",
        "y"
      ],
      [
        "e",
        "en"
      ],
      [
        "i",
        "le"
      ],
      [
        "res",
        "s"
      ],
      [
        "o",
        "ve"
      ],
      [
        "▁o",
        "ur"
      ],
      [
        "u",
        "ll"
      ],
      [
        "▁T",
        "h"
      ],
      [
        "ac",
        "t"
      ],
      [
        "▁be",
        "fore"
      ],
      [
        "in",
        "e"
      ],
      [
        "▁p",
        "e"
      ],
      [
        "▁tim",
        "e"
      ],
      [
        "▁s",
        "ay"
      ],
      [
        "a",
        "v"
      ],
      [
        "f",
        "ul"
      ],
      [
        "▁p",
        "re"
      ],
      [
        "Y",
        "ou"
      ],
      [
        "▁th",
        "ink"
      ],
      [
        "w",
        "ard"
      ],
      [
        "he",
        "n"
      ],
      [
        "ly",
        ","
      ],
      [
        "▁f",
        "ir"
      ],
      [
        "▁m",
        "ade"
      ],
      [
        "i",
        "ld"
      ],
      [
        "▁b",
        "ack"
      ],
      [
        "t",
        "y"
      ],
      [
        "ic",
        "e"
      ],
      [
        "▁p",
        "art"
      ],
      [
        "▁st",
        "r"
      ],
      [
        "▁",
        "ri"
      ],
      [
        "▁c",
        "ame"
      ],
      [
        "▁th",
        "ing"
      ],
      [
        "▁f",
        "o"
      ],
      [
        "i",
        "es"
      ],
      [
        "▁l",
        "ong"
      ],
      [
        "▁th",
        "r"
      ],
      [
        "▁o",
        "ld"
      ],
      [
        "▁h",
        "ow"
      ],
      [
        "on",
        "'t"
      ],
      [
        "f",
        "t"
      ],
      [
        "e",
        "re"
      ],
      [
        "▁s",
        "pe"
      ],
      [
        "-",
        "-"
      ],
      [
        "▁m",
        "uch"
      ],
      [
        "or",
        "d"
      ],
      [
        "▁con",
        "t"
      ],
      [
        "▁s",
        "m"
      ],
      [
        "er",
        "t"
      ],
      [
        "▁w",
        "ay"
      ],
      [
        "▁u",
        "nder"
      ],
      [
        "i",
        "v"
      ],
      [
        "▁su",
        "ch"
      ],
      [
        "ing",
        "."
      ],
      [
        "▁th",
        "ought"
      ],
      [
        "ly",
        "."
      ],
      [
        "▁re",
        "m"
      ],
      [
        "▁be",
        "c"
      ],
      [
        "▁I",
        "n"
      ],
      [
        "▁e",
        "very"
      ],
      [
        "ac",
        "h"
      ],
      [
        "n",
        "'t"
      ],
      [
        "▁c",
        "ha"
      ],
      [
        "▁e",
        "y"
      ],
      [
        "▁fir",
        "st"
      ],
      [
        "▁s",
        "c"
      ],
      [
        "or",
        "n"
      ],
      [
        "▁ne",
        "ver"
      ],
      [
        "c",
        "l"
      ],
      [
        "i",
        "ed"
      ],
      [
        "i",
        "p"
      ],
      [
        "i",
        "ous"
      ],
      [
        "a",
        "ve"
      ],
      [
        "an",
        "g"
      ],
      [
        "▁l",
        "ook"
      ],
      [
        "ar",
        "k"
      ],
      [
        "▁whe",
        "re"
      ],
      [
        "▁m",
        "ay"
      ],
      [
        "▁re",
        "s"
      ],
      [
        "▁w",
        "ent"
      ],
      [
        "▁the",
        "se"
      ],
      [
        "▁him",
        "self"
      ],
      [
        "▁g",
        "l"
      ],
      [
        "▁c",
        "ome"
      ],
      [
        "▁e",
        "ven"
      ],
      [
        "▁be",
        "t"
      ],
      [
        "ri",
        "ed"
      ],
      [
        "▁we",
        "ll"
      ],
      [
        "▁o",
        "b"
      ],
      [
        "▁j",
        "ust"
      ],
      [
        "l",
        "ed"
      ],
      [
        "in",
        "t"
      ],
      [
        "▁se",
        "em"
      ],
      [
        "o",
        "nd"
      ],
      [
        "▁l",
        "if"
      ],
      [
        "▁o",
        "wn"
      ],
      [
        "os",
        "s"
      ],
      [
        "▁be",
        "g"
      ],
      [
        "▁The",
        "y"
      ],
      [
        "▁d",
        "es"
      ],
      [
        "er",
        "."
      ],
      [
        "at",
        "ed"
      ],
      [
        "ag",
        "e"
      ],
      [
        "▁com",
        "p"
      ],
      [
        "▁at",
        "t"
      ],
      [
        "ll",
        "ow"
      ],
      [
        "ar",
        "y"
      ],
      [
        "▁s",
        "l"
      ],
      [
        "n",
        "ess"
      ],
      [
        "▁g",
        "et"
      ],
      [
        "▁m",
        "ight"
      ],
      [
        "i",
        "an"
      ],
      [
        "e",
        "w"
      ],
      [
        "▁w",
        "at"
      ],
      [
        "ou",
        "se"
      ],
      [
        "▁m",
        "ake"
      ],
      [
        "▁l",
        "et"
      ],
      [
        "▁im",
        "p"
      ],
      [
        "▁in",
        "d"
      ],
      [
        "is",
        "s"
      ],
      [
        "▁c",
        "r"
      ],
      [
        "▁it",
        "."
      ],
      [
        "▁a",
        "way"
      ],
      [
        "i",
        "z"
      ],
      [
        "ion",
        "s"
      ],
      [
        "▁",
        "K"
      ],
      [
        "om",
        "et"
      ],
      [
        "if",
        "f"
      ],
      [
        "▁",
        "ke"
      ],
      [
        "e",
        "ver"
      ],
      [
        "▁con",
        "s"
      ],
      [
        "h",
        ","
      ],
      [
        "u",
        "e"
      ],
      [
        "▁m",
        "en"
      ],
      [
        "a",
        "red"
      ],
      [
        "▁he",
        "ad"
      ],
      [
        "▁t",
        "urn"
      ],
      [
        "▁he",
        "re"
      ],
      [
        "v",
        "ing"
      ],
      [
        "▁h",
        "o"
      ],
      [
        "b",
        "er"
      ],
      [
        "▁\"",
        "A"
      ],
      [
        "i",
        "x"
      ],
      [
        "▁be",
        "l"
      ],
      [
        "▁thr",
        "ough"
      ],
      [
        "▁o",
        "p"
      ],
      [
        "▁p",
        "ass"
      ],
      [
        "▁m",
        "ost"
      ],
      [
        "▁c",
        "all"
      ],
      [
        "an",
        "c"
      ],
      [
        "ig",
        "n"
      ],
      [
        "▁The",
        "re"
      ],
      [
        "▁it",
        ","
      ],
      [
        "▁a",
        "cc"
      ],
      [
        "▁s",
        "w"
      ],
      [
        "au",
        "se"
      ],
      [
        "▁with",
        "out"
      ],
      [
        "ad",
        "y"
      ],
      [
        "▁f",
        "ri"
      ],
      [
        "ul",
        "t"
      ],
      [
        "▁c",
        "ar"
      ],
      [
        "i",
        "ble"
      ],
      [
        "▁n",
        "ight"
      ],
      [
        "▁wor",
        "k"
      ],
      [
        "pe",
        "ct"
      ],
      [
        "▁f",
        "ound"
      ],
      [
        "▁l",
        "ast"
      ],
      [
        "▁I",
        "'"
      ],
      [
        "a",
        "ir"
      ],
      [
        "▁him",
        "."
      ],
      [
        "▁c",
        "our"
      ],
      [
        "op",
        "le"
      ],
      [
        "a",
        ","
      ],
      [
        "▁l",
        "oo"
      ],
      [
        "▁",
        "ent"
      ],
      [
        "▁l",
        "o"
      ],
      [
        "▁re",
        "t"
      ],
      [
        "▁y",
        "ear"
      ],
      [
        "▁t",
        "ake"
      ],
      [
        "is",
        "e"
      ],
      [
        "a",
        "il"
      ],
      [
        "▁st",
        "ill"
      ],
      [
        "at",
        "h"
      ],
      [
        "ion",
        ","
      ],
      [
        "▁e",
        "ar"
      ],
      [
        "▁p",
        "res"
      ],
      [
        "▁Th",
        "is"
      ],
      [
        "▁p",
        "ut"
      ],
      [
        "▁ri",
        "ght"
      ],
      [
        "▁wor",
        "d"
      ],
      [
        "▁The",
        "n"
      ],
      [
        "▁w",
        "ant"
      ],
      [
        "n",
        "e"
      ],
      [
        "▁d",
        "on't"
      ],
      [
        "▁sha",
        "ll"
      ],
      [
        "▁s",
        "omet"
      ],
      [
        "he",
        "re"
      ],
      [
        "▁t",
        "ell"
      ],
      [
        "▁him",
        ","
      ],
      [
        "▁sa",
        "w"
      ],
      [
        "▁pl",
        "ace"
      ],
      [
        "▁th",
        "ose"
      ],
      [
        "▁too",
        "k"
      ],
      [
        "▁h",
        "ouse"
      ],
      [
        "▁ha",
        "r"
      ],
      [
        "▁pe",
        "ople"
      ],
      [
        "i",
        "ly"
      ],
      [
        "▁com",
        "m"
      ],
      [
        "le",
        "as"
      ],
      [
        "g",
        "et"
      ],
      [
        "▁be",
        "ing"
      ],
      [
        "en",
        "ed"
      ],
      [
        "▁m",
        "at"
      ],
      [
        "▁ch",
        "ild"
      ],
      [
        "an",
        "s"
      ],
      [
        "▁W",
        "e"
      ],
      [
        "▁loo",
        "ked"
      ],
      [
        "▁w",
        "om"
      ],
      [
        "on",
        ","
      ],
      [
        "▁S",
        "t"
      ],
      [
        "u",
        "b"
      ],
      [
        "ot",
        "h"
      ],
      [
        "▁ha",
        "pp"
      ],
      [
        "al",
        "k"
      ],
      [
        "▁s",
        "er"
      ],
      [
        "▁not",
        "hing"
      ],
      [
        "▁e",
        "m"
      ],
      [
        "▁man",
        "y"
      ],
      [
        "▁f",
        "ace"
      ],
      [
        "▁f",
        "ar"
      ],
      [
        "p",
        "s"
      ],
      [
        "▁as",
        "ked"
      ],
      [
        "▁you",
        "ng"
      ],
      [
        "ic",
        "t"
      ],
      [
        "▁W",
        "hen"
      ],
      [
        "▁th",
        "ree"
      ],
      [
        "l",
        "ess"
      ],
      [
        "▁ro",
        "om"
      ],
      [
        "▁w",
        "r"
      ],
      [
        "ir",
        "l"
      ],
      [
        "l",
        "es"
      ],
      [
        "is",
        "hed"
      ],
      [
        "▁d",
        "ist"
      ],
      [
        "▁e",
        "nd"
      ],
      [
        "ion",
        "."
      ],
      [
        "g",
        "g"
      ],
      [
        "▁j",
        "o"
      ],
      [
        "m",
        "an"
      ],
      [
        "▁an",
        "other"
      ],
      [
        "▁fri",
        "end"
      ],
      [
        "▁ne",
        "w"
      ],
      [
        "o",
        ","
      ],
      [
        "▁on",
        "ce"
      ],
      [
        "s",
        "w"
      ],
      [
        "ak",
        "ing"
      ],
      [
        "▁le",
        "ft"
      ],
      [
        "l",
        "t"
      ],
      [
        "▁A",
        "s"
      ],
      [
        "▁su",
        "pp"
      ],
      [
        "▁a",
        "c"
      ],
      [
        ".",
        "."
      ],
      [
        "en",
        "s"
      ],
      [
        "a",
        "w"
      ],
      [
        "▁a",
        "ct"
      ],
      [
        "i",
        "gh"
      ],
      [
        "ert",
        "ain"
      ],
      [
        "▁d",
        "iff"
      ],
      [
        "v",
        "ent"
      ],
      [
        "▁l",
        "ight"
      ],
      [
        "v",
        "es"
      ],
      [
        "re",
        "n"
      ],
      [
        "▁in",
        "st"
      ],
      [
        "om",
        "ent"
      ],
      [
        "ic",
        "al"
      ],
      [
        "▁m",
        "oment"
      ],
      [
        "▁\"",
        "N"
      ],
      [
        "in",
        "ce"
      ],
      [
        "▁re",
        "p"
      ],
      [
        "on",
        "s"
      ],
      [
        "▁s",
        "et"
      ],
      [
        "c",
        "ess"
      ],
      [
        "or",
        "m"
      ],
      [
        "▁wh",
        "ile"
      ],
      [
        "▁",
        "You"
      ],
      [
        "j",
        "ect"
      ],
      [
        "▁ar",
        "m"
      ],
      [
        "▁s",
        "ame"
      ],
      [
        "▁do",
        "or"
      ],
      [
        "▁f",
        "ind"
      ],
      [
        "▁m",
        "ar"
      ],
      [
        "▁he",
        "art"
      ],
      [
        "▁an",
        "sw"
      ],
      [
        "▁\"",
        "H"
      ],
      [
        "▁said",
        ","
      ],
      [
        "u",
        "nd"
      ],
      [
        "▁A",
        "t"
      ],
      [
        "pp",
        "ed"
      ],
      [
        "▁f",
        "ather"
      ],
      [
        "▁m",
        "e,"
      ],
      [
        "▁e",
        "ver"
      ],
      [
        "▁p",
        "oss"
      ],
      [
        "way",
        "s"
      ],
      [
        "▁re",
        "c"
      ],
      [
        "th",
        "ing"
      ],
      [
        "d",
        "en"
      ],
      [
        "▁mr",
        "s"
      ],
      [
        "▁d",
        "r"
      ],
      [
        "▁g",
        "irl"
      ],
      [
        "▁c",
        "ount"
      ],
      [
        "▁se",
        "c"
      ],
      [
        "o",
        "ck"
      ],
      [
        "re",
        "w"
      ],
      [
        "▁h",
        "or"
      ],
      [
        "▁t",
        "e"
      ],
      [
        "▁seem",
        "ed"
      ],
      [
        "▁m",
        "ind"
      ],
      [
        ".",
        "'"
      ],
      [
        "▁p",
        "leas"
      ],
      [
        "he",
        "s"
      ],
      [
        "se",
        "l"
      ],
      [
        "▁for",
        "m"
      ],
      [
        "s",
        "o"
      ],
      [
        "▁p",
        "ers"
      ],
      [
        "▁g",
        "ot"
      ],
      [
        "an",
        "k"
      ],
      [
        "▁st",
        "re"
      ],
      [
        "▁fo",
        "llow"
      ],
      [
        "▁th",
        "ough"
      ],
      [
        "c",
        "hed"
      ],
      [
        "▁y",
        "et"
      ],
      [
        "▁ey",
        "es"
      ],
      [
        "▁c",
        "han"
      ],
      [
        "▁",
        "V"
      ],
      [
        "▁al",
        "ways"
      ],
      [
        "▁s",
        "ur"
      ],
      [
        "ow",
        "er"
      ],
      [
        "▁s",
        "at"
      ],
      [
        "▁somet",
        "hing"
      ],
      [
        "▁S",
        "o"
      ],
      [
        "▁n",
        "at"
      ],
      [
        "▁su",
        "b"
      ],
      [
        "a",
        "ut"
      ],
      [
        "u",
        "ck"
      ],
      [
        "▁g",
        "ive"
      ],
      [
        "▁\"",
        "B"
      ],
      [
        "▁go",
        "ing"
      ],
      [
        "▁to",
        "ld"
      ],
      [
        "or",
        "y"
      ],
      [
        "▁he",
        "ard"
      ],
      [
        "▁wor",
        "ld"
      ],
      [
        "▁so",
        "on"
      ],
      [
        "r",
        "u"
      ],
      [
        "au",
        "ght"
      ],
      [
        "ot",
        "t"
      ],
      [
        "it",
        "ion"
      ],
      [
        "▁\"",
        "O"
      ],
      [
        "oo",
        "l"
      ],
      [
        "▁u",
        "nt"
      ],
      [
        "u",
        "al"
      ],
      [
        "▁fe",
        "el"
      ],
      [
        "▁\"",
        "You"
      ],
      [
        "▁qu",
        "ite"
      ],
      [
        "▁k",
        "ind"
      ],
      [
        "▁I",
        "f"
      ],
      [
        "▁ret",
        "urn"
      ],
      [
        "it",
        "her"
      ],
      [
        "▁f",
        "our"
      ],
      [
        "c",
        "ed"
      ],
      [
        "p",
        "le"
      ],
      [
        "▁C",
        "h"
      ],
      [
        "r",
        "ow"
      ],
      [
        "▁cha",
        "r"
      ],
      [
        "i",
        "red"
      ],
      [
        "▁c",
        "are"
      ],
      [
        "ent",
        "ly"
      ],
      [
        "ce",
        "pt"
      ],
      [
        "▁fe",
        "w"
      ],
      [
        "▁m",
        "in"
      ],
      [
        "▁e",
        "ight"
      ],
      [
        "▁re",
        "l"
      ],
      [
        "m",
        "ost"
      ],
      [
        "ro",
        "s"
      ],
      [
        "▁dis",
        "c"
      ],
      [
        "▁l",
        "ove"
      ],
      [
        "▁",
        "U"
      ],
      [
        "▁again",
        "st"
      ],
      [
        "f",
        "ect"
      ],
      [
        "▁c",
        "le"
      ],
      [
        "▁lif",
        "e"
      ],
      [
        "▁v",
        "o"
      ],
      [
        "i",
        "al"
      ],
      [
        "▁m",
        "other"
      ],
      [
        "ain",
        "ed"
      ],
      [
        "▁bel",
        "ie"
      ],
      [
        "▁cour",
        "se"
      ],
      [
        "▁t",
        "re"
      ],
      [
        "n",
        "ot"
      ],
      [
        "▁w",
        "a"
      ],
      [
        "▁w",
        "ar"
      ],
      [
        "▁re",
        "st"
      ],
      [
        "en",
        ","
      ],
      [
        "▁beg",
        "an"
      ],
      [
        "▁p",
        "a"
      ],
      [
        "en",
        "er"
      ],
      [
        "l",
        "ing"
      ],
      [
        "▁g",
        "u"
      ],
      [
        "▁e",
        "ach"
      ],
      [
        "i",
        "a"
      ],
      [
        "▁",
        "Y"
      ],
      [
        "▁ex",
        "p"
      ],
      [
        "▁he",
        "l"
      ],
      [
        "t",
        "he"
      ],
      [
        "▁kn",
        "ew"
      ],
      [
        "od",
        "y"
      ],
      [
        "▁bec",
        "ause"
      ],
      [
        "get",
        "her"
      ],
      [
        "l",
        "and"
      ],
      [
        "▁re",
        "g"
      ],
      [
        "n",
        "ing"
      ],
      [
        "▁w",
        "ind"
      ],
      [
        "▁F",
        "or"
      ],
      [
        "▁in",
        "f"
      ],
      [
        "▁W",
        "h"
      ],
      [
        "re",
        "t"
      ],
      [
        "▁bet",
        "ter"
      ],
      [
        "▁b",
        "re"
      ],
      [
        "▁\"",
        "S"
      ],
      [
        "▁en",
        "ough"
      ],
      [
        "▁H",
        "is"
      ],
      [
        "▁or",
        "d"
      ],
      [
        "▁de",
        "l"
      ],
      [
        "▁har",
        "d"
      ],
      [
        "▁in",
        "c"
      ],
      [
        "▁re",
        "pl"
      ],
      [
        "▁re",
        "f"
      ],
      [
        "t",
        "ing"
      ],
      [
        "▁con",
        "f"
      ],
      [
        "▁ha",
        "lf"
      ],
      [
        "ou",
        "b"
      ],
      [
        "▁thing",
        "s"
      ],
      [
        "▁\"",
        "Y"
      ],
      [
        "o",
        "g"
      ],
      [
        "ing",
        "s"
      ],
      [
        "g",
        "ed"
      ],
      [
        "x",
        "t"
      ],
      [
        "▁p",
        "ur"
      ],
      [
        "▁g",
        "ave"
      ],
      [
        "▁W",
        "hat"
      ],
      [
        "▁them",
        "."
      ],
      [
        "▁s",
        "ix"
      ],
      [
        "t",
        "ed"
      ],
      [
        "▁turn",
        "ed"
      ],
      [
        "▁wom",
        "an"
      ],
      [
        "i",
        "b"
      ],
      [
        "'",
        "ll"
      ],
      [
        "▁s",
        "il"
      ],
      [
        "▁as",
        "s"
      ],
      [
        "▁ke",
        "ep"
      ],
      [
        "▁ne",
        "ar"
      ],
      [
        "ul",
        "ar"
      ],
      [
        "▁m",
        "o"
      ],
      [
        "it",
        "ed"
      ],
      [
        "▁c",
        "a"
      ],
      [
        "as",
        "ter"
      ],
      [
        "▁fe",
        "lt"
      ],
      [
        "▁c",
        "ertain"
      ],
      [
        "▁and",
        ","
      ],
      [
        "▁c",
        "ur"
      ],
      [
        "▁to",
        "ward"
      ],
      [
        "▁po",
        "int"
      ],
      [
        "▁who",
        "le"
      ],
      [
        "▁T",
        "hat"
      ],
      [
        "in",
        "ed"
      ],
      [
        "▁c",
        "he"
      ],
      [
        "▁mat",
        "ter"
      ],
      [
        "▁ad",
        "d"
      ],
      [
        "▁M",
        "ar"
      ],
      [
        "ros",
        "s"
      ],
      [
        "es",
        "s,"
      ],
      [
        "ent",
        "y"
      ],
      [
        "▁O",
        "n"
      ],
      [
        "w",
        "een"
      ],
      [
        "▁bo",
        "y"
      ],
      [
        "u",
        "p"
      ],
      [
        "on",
        "t"
      ],
      [
        "▁h",
        "ome"
      ],
      [
        "▁re",
        "ad"
      ],
      [
        "▁h",
        "our"
      ],
      [
        "▁st",
        "e"
      ],
      [
        "▁do",
        "es"
      ],
      [
        "▁op",
        "en"
      ],
      [
        "▁l",
        "ar"
      ],
      [
        "▁call",
        "ed"
      ],
      [
        "▁o",
        "cc"
      ],
      [
        "▁m",
        "orn"
      ],
      [
        "am",
        "p"
      ],
      [
        "▁in",
        "ter"
      ],
      [
        "▁unt",
        "il"
      ],
      [
        "▁sm",
        "all"
      ],
      [
        "E",
        "R"
      ],
      [
        "ak",
        "en"
      ],
      [
        "▁m",
        "on"
      ],
      [
        "▁f",
        "act"
      ],
      [
        "▁you",
        ","
      ],
      [
        "ell",
        ","
      ],
      [
        "f",
        "ull"
      ],
      [
        "▁\"T",
        "he"
      ],
      [
        "▁b",
        "ro"
      ],
      [
        "▁them",
        ","
      ],
      [
        "ow",
        ","
      ],
      [
        "▁h",
        "um"
      ],
      [
        "or",
        ","
      ],
      [
        "▁e",
        "ff"
      ],
      [
        "▁hel",
        "p"
      ],
      [
        "en",
        "se"
      ],
      [
        "o",
        "y"
      ],
      [
        "▁al",
        "so"
      ],
      [
        "▁st",
        "ood"
      ],
      [
        "is",
        "ed"
      ],
      [
        "i",
        "et"
      ],
      [
        "▁'",
        "I"
      ],
      [
        "▁th",
        "ir"
      ],
      [
        "▁f",
        "ull"
      ],
      [
        "▁s",
        "k"
      ],
      [
        "▁T",
        "o"
      ],
      [
        "▁b",
        "est"
      ],
      [
        "ation",
        "s"
      ],
      [
        "▁bet",
        "ween"
      ],
      [
        "▁pres",
        "ent"
      ],
      [
        "▁su",
        "re"
      ],
      [
        "▁b",
        "u"
      ],
      [
        "▁al",
        "most"
      ],
      [
        "as",
        "on"
      ],
      [
        "▁my",
        "self"
      ],
      [
        "o",
        "c"
      ],
      [
        "m",
        "er"
      ],
      [
        "▁s",
        "le"
      ],
      [
        "▁me",
        "an"
      ],
      [
        "▁\"I",
        "t"
      ],
      [
        "?",
        "'"
      ],
      [
        "▁t",
        "er"
      ],
      [
        "▁ex",
        "t"
      ],
      [
        "t",
        "e"
      ],
      [
        "ation",
        ","
      ],
      [
        "▁de",
        "ar"
      ],
      [
        "ou",
        "d"
      ],
      [
        "▁M",
        "iss"
      ],
      [
        "▁b",
        "oth"
      ],
      [
        "▁her",
        "self"
      ],
      [
        "▁c",
        "as"
      ],
      [
        "▁qu",
        "est"
      ],
      [
        "s",
        ";"
      ],
      [
        "▁in",
        "s"
      ],
      [
        "▁G",
        "od"
      ],
      [
        "▁sp",
        "o"
      ],
      [
        "▁e",
        "l"
      ],
      [
        "▁her",
        ","
      ],
      [
        "ve",
        "l"
      ],
      [
        "▁\"W",
        "hat"
      ],
      [
        "un",
        "g"
      ],
      [
        "▁t",
        "ra"
      ],
      [
        "ation",
        "."
      ],
      [
        "▁be",
        "aut"
      ],
      [
        "▁sh",
        "ow"
      ],
      [
        "▁se",
        "en"
      ],
      [
        "i",
        "er"
      ],
      [
        "▁spe",
        "ak"
      ],
      [
        "▁d",
        "ark"
      ],
      [
        "ever",
        ","
      ],
      [
        "d",
        "u"
      ],
      [
        "m",
        "ed"
      ],
      [
        "▁to",
        "gether"
      ],
      [
        "▁m",
        "et"
      ],
      [
        "p",
        "r"
      ],
      [
        "y",
        "ing"
      ],
      [
        "▁d",
        "re"
      ],
      [
        "▁her",
        "."
      ],
      [
        "▁fe",
        "et"
      ],
      [
        "▁s",
        "ent"
      ],
      [
        "▁under",
        "st"
      ],
      [
        "▁w",
        "o"
      ],
      [
        "u",
        "nt"
      ],
      [
        "▁A",
        "n"
      ],
      [
        "it",
        "y,"
      ],
      [
        "▁br",
        "ought"
      ],
      [
        "▁a",
        "w"
      ],
      [
        "und",
        "red"
      ],
      [
        "▁year",
        "s"
      ],
      [
        "a",
        "z"
      ],
      [
        "ver",
        "s"
      ],
      [
        "▁l",
        "at"
      ],
      [
        "▁f",
        "ive"
      ],
      [
        "▁F",
        "r"
      ],
      [
        "le",
        ","
      ],
      [
        "ere",
        "st"
      ],
      [
        "▁f",
        "am"
      ],
      [
        "▁e",
        "v"
      ],
      [
        "▁c",
        "ol"
      ],
      [
        "▁ha",
        "ving"
      ],
      [
        "▁f",
        "ore"
      ],
      [
        "b",
        "ut"
      ],
      [
        "os",
        "ed"
      ],
      [
        "e",
        "k"
      ],
      [
        "▁st",
        "and"
      ],
      [
        "▁ne",
        "xt"
      ],
      [
        "d",
        "den"
      ],
      [
        "in",
        "ess"
      ],
      [
        "▁u",
        "se"
      ],
      [
        "▁f",
        "in"
      ],
      [
        "le",
        "ct"
      ],
      [
        "ac",
        "hed"
      ],
      [
        "▁am",
        "ong"
      ],
      [
        "er",
        "n"
      ],
      [
        "p",
        "h"
      ],
      [
        "▁",
        "("
      ],
      [
        "▁h",
        "undred"
      ],
      [
        "▁b",
        "us"
      ],
      [
        "ut",
        "h"
      ],
      [
        "▁can",
        "not"
      ],
      [
        "▁\"",
        "D"
      ],
      [
        "at",
        "ing"
      ],
      [
        "id",
        "ent"
      ],
      [
        "▁as",
        "k"
      ],
      [
        "▁cont",
        "in"
      ],
      [
        "▁wat",
        "er"
      ],
      [
        "▁ind",
        "e"
      ],
      [
        "▁l",
        "ess"
      ],
      [
        "▁su",
        "dden"
      ],
      [
        "ire",
        "ct"
      ],
      [
        "ain",
        "t"
      ],
      [
        "▁t",
        "alk"
      ],
      [
        "▁n",
        "or"
      ],
      [
        "▁tw",
        "enty"
      ],
      [
        "▁s",
        "ide"
      ],
      [
        "▁hand",
        "s"
      ],
      [
        "n",
        "er"
      ],
      [
        "th",
        ","
      ],
      [
        "o",
        "b"
      ],
      [
        "u",
        "red"
      ],
      [
        "ha",
        "ps"
      ],
      [
        "▁d",
        "one"
      ],
      [
        "▁g",
        "ener"
      ],
      [
        "▁r",
        "ather"
      ],
      [
        "▁po",
        "or"
      ],
      [
        "▁cons",
        "id"
      ],
      [
        ",",
        "'"
      ],
      [
        "▁t",
        "ri"
      ],
      [
        "em",
        "ent"
      ],
      [
        "▁v",
        "is"
      ],
      [
        "▁co",
        "nd"
      ],
      [
        "▁look",
        "ing"
      ],
      [
        "▁h",
        "igh"
      ],
      [
        "▁s",
        "im"
      ],
      [
        "▁a",
        "ir"
      ],
      [
        "▁f",
        "all"
      ],
      [
        "a",
        "id"
      ],
      [
        "▁wh",
        "om"
      ],
      [
        "▁me",
        "."
      ],
      [
        "▁l",
        "ay"
      ],
      [
        "▁diff",
        "ere"
      ],
      [
        "▁su",
        "ff"
      ],
      [
        "▁any",
        "thing"
      ],
      [
        "a",
        "."
      ],
      [
        "▁he",
        "ar"
      ],
      [
        "▁st",
        "art"
      ],
      [
        "▁int",
        "erest"
      ],
      [
        "▁c",
        "ried"
      ],
      [
        "▁l",
        "au"
      ],
      [
        "▁ne",
        "ed"
      ],
      [
        "▁",
        "ide"
      ],
      [
        "▁r",
        "ound"
      ],
      [
        "▁P",
        "r"
      ],
      [
        "▁pers",
        "on"
      ],
      [
        "h",
        "o"
      ],
      [
        "m",
        "b"
      ],
      [
        "or",
        "s"
      ],
      [
        "▁su",
        "n"
      ],
      [
        "▁f",
        "ire"
      ],
      [
        "▁ad",
        "v"
      ],
      [
        "▁s",
        "n"
      ],
      [
        "en",
        "c"
      ],
      [
        "▁g",
        "ent"
      ],
      [
        "▁g",
        "i"
      ],
      [
        "▁answ",
        "ered"
      ],
      [
        "▁d",
        "irect"
      ],
      [
        "▁cl",
        "ose"
      ],
      [
        "h",
        "y"
      ],
      [
        "▁",
        "es"
      ],
      [
        "▁e",
        "as"
      ],
      [
        "▁B",
        "e"
      ],
      [
        "▁E",
        "ng"
      ],
      [
        "▁\"",
        "M"
      ],
      [
        "l",
        "ic"
      ],
      [
        "f",
        "ter"
      ],
      [
        "▁o",
        "pp"
      ],
      [
        "▁b",
        "ri"
      ],
      [
        "ur",
        "ing"
      ],
      [
        "is",
        "ter"
      ],
      [
        "▁t",
        "ill"
      ],
      [
        "▁p",
        "ower"
      ],
      [
        "l",
        "i"
      ],
      [
        "et",
        "er"
      ],
      [
        "ie",
        "ld"
      ],
      [
        "▁l",
        "and"
      ],
      [
        "▁re",
        "al"
      ],
      [
        "r",
        "ist"
      ],
      [
        "f",
        "ort"
      ],
      [
        "▁d",
        "oub"
      ],
      [
        "▁lar",
        "ge"
      ],
      [
        "ar",
        "n"
      ],
      [
        "▁bl",
        "ack"
      ],
      [
        "▁t",
        "aken"
      ],
      [
        "t",
        "en"
      ],
      [
        "ou",
        "n"
      ],
      [
        "▁that",
        ","
      ],
      [
        "t",
        ","
      ],
      [
        "▁child",
        "ren"
      ],
      [
        "on",
        "e,"
      ],
      [
        "a",
        "pp"
      ],
      [
        "▁fe",
        "ar"
      ],
      [
        "▁pr",
        "om"
      ],
      [
        "▁repl",
        "ied"
      ],
      [
        "▁de",
        "p"
      ],
      [
        "▁belie",
        "ve"
      ],
      [
        "▁pl",
        "ay"
      ],
      [
        "▁pre",
        "t"
      ],
      [
        "▁S",
        "ir"
      ],
      [
        "▁w",
        "if"
      ],
      [
        "▁l",
        "ad"
      ],
      [
        "▁them",
        "sel"
      ],
      [
        "h",
        "n"
      ],
      [
        "▁d",
        "ro"
      ],
      [
        "▁wh",
        "ite"
      ],
      [
        "ie",
        "f"
      ],
      [
        "▁s",
        "ou"
      ],
      [
        "▁ho",
        "pe"
      ],
      [
        "u",
        "c"
      ],
      [
        "▁r",
        "un"
      ],
      [
        "▁\"B",
        "ut"
      ],
      [
        "▁ser",
        "v"
      ],
      [
        "▁k",
        "ing"
      ],
      [
        "▁ex",
        "pl"
      ],
      [
        "it",
        "y."
      ],
      [
        "▁wo",
        "nder"
      ],
      [
        "h",
        "ind"
      ],
      [
        "▁f",
        "if"
      ],
      [
        "▁al",
        "ong"
      ],
      [
        "at",
        "t"
      ],
      [
        "ha",
        "r"
      ],
      [
        "▁s",
        "ince"
      ],
      [
        "▁gr",
        "ound"
      ],
      [
        "▁said",
        "."
      ],
      [
        "▁how",
        "ever,"
      ],
      [
        "s",
        "h"
      ],
      [
        "is",
        "on"
      ],
      [
        "!",
        "'"
      ],
      [
        "a",
        "im"
      ],
      [
        "▁de",
        "c"
      ],
      [
        "▁wa",
        "it"
      ],
      [
        "er",
        "y"
      ],
      [
        "er",
        "ing"
      ],
      [
        "▁A",
        "ll"
      ],
      [
        "ra",
        "w"
      ],
      [
        "▁un",
        "c"
      ],
      [
        "▁min",
        "ut"
      ],
      [
        "▁ex",
        "pect"
      ],
      [
        "ak",
        "es"
      ],
      [
        "▁H",
        "er"
      ],
      [
        "▁ad",
        "m"
      ],
      [
        "i",
        "es,"
      ],
      [
        "▁p",
        "at"
      ],
      [
        "▁g",
        "ra"
      ],
      [
        "at",
        "es"
      ],
      [
        "o",
        "ll"
      ],
      [
        "▁ex",
        "c"
      ],
      [
        "▁pr",
        "in"
      ],
      [
        "ce",
        "ed"
      ],
      [
        "▁H",
        "ow"
      ],
      [
        "▁let",
        "ter"
      ],
      [
        "ress",
        "ed"
      ],
      [
        "▁p",
        "ol"
      ],
      [
        "▁g",
        "re"
      ],
      [
        "▁contin",
        "u"
      ],
      [
        "k",
        "en"
      ],
      [
        "▁in",
        "v"
      ],
      [
        "▁pl",
        "ac"
      ],
      [
        "▁ho",
        "ld"
      ],
      [
        "▁it",
        "self"
      ],
      [
        "▁be",
        "hind"
      ],
      [
        "▁b",
        "ook"
      ],
      [
        "▁str",
        "ong"
      ],
      [
        "i",
        "ved"
      ],
      [
        "u",
        "res"
      ],
      [
        "▁fe",
        "ll"
      ],
      [
        "▁re",
        "ce"
      ],
      [
        "▁hor",
        "se"
      ],
      [
        "ure",
        ","
      ],
      [
        "ab",
        "ly"
      ],
      [
        "e",
        "ared"
      ],
      [
        "▁m",
        "one"
      ],
      [
        "ate",
        "ly"
      ],
      [
        "pt",
        "ain"
      ],
      [
        "▁s",
        "ound"
      ],
      [
        "t",
        "o"
      ],
      [
        "t",
        "on"
      ],
      [
        "▁\"A",
        "nd"
      ],
      [
        "▁de",
        "ad"
      ],
      [
        "▁app",
        "ear"
      ],
      [
        "▁I'",
        "m"
      ],
      [
        "id",
        "ed"
      ],
      [
        "▁de",
        "f"
      ],
      [
        "▁day",
        "s"
      ],
      [
        "▁pass",
        "ed"
      ],
      [
        "▁gi",
        "ven"
      ],
      [
        "▁c",
        "or"
      ],
      [
        "full",
        "y"
      ],
      [
        "▁l",
        "aw"
      ],
      [
        "e,",
        "\""
      ],
      [
        "▁sh",
        "ort"
      ],
      [
        "ous",
        "and"
      ],
      [
        "▁qu",
        "ick"
      ],
      [
        "b",
        "it"
      ],
      [
        "▁comp",
        "an"
      ],
      [
        "▁de",
        "ep"
      ],
      [
        "▁underst",
        "and"
      ],
      [
        "▁an",
        "g"
      ],
      [
        "er",
        "s,"
      ],
      [
        "▁th",
        "ousand"
      ],
      [
        "ar",
        "s"
      ],
      [
        "ance",
        ","
      ],
      [
        "um",
        "b"
      ],
      [
        "if",
        "ic"
      ],
      [
        "▁rem",
        "em"
      ],
      [
        "em",
        "pt"
      ],
      [
        "ent",
        "ion"
      ],
      [
        "en",
        "e"
      ],
      [
        "▁of",
        "ten"
      ],
      [
        "▁pro",
        "p"
      ],
      [
        "o",
        "ver"
      ],
      [
        "▁le",
        "ave"
      ],
      [
        "▁n",
        "ame"
      ],
      [
        "▁le",
        "ast"
      ],
      [
        "▁w",
        "ish"
      ],
      [
        "▁sp",
        "r"
      ],
      [
        "▁gent",
        "le"
      ],
      [
        "if",
        "ul"
      ],
      [
        "▁d",
        "ri"
      ],
      [
        "an",
        "ge"
      ],
      [
        "H",
        "A"
      ],
      [
        "t",
        "een"
      ],
      [
        "▁sec",
        "ond"
      ],
      [
        "▁cle",
        "ar"
      ],
      [
        "▁br",
        "other"
      ],
      [
        "ence",
        ","
      ],
      [
        "'",
        "re"
      ],
      [
        "u",
        "ff"
      ],
      [
        "or",
        "."
      ],
      [
        "▁A",
        "r"
      ],
      [
        "▁ob",
        "s"
      ],
      [
        "b",
        "e"
      ],
      [
        "u",
        "g"
      ],
      [
        "▁A",
        "fter"
      ],
      [
        "▁m",
        "il"
      ],
      [
        "▁c",
        "ir"
      ],
      [
        "ir",
        "it"
      ],
      [
        "▁poss",
        "ible"
      ],
      [
        "▁f",
        "ur"
      ],
      [
        "al",
        "ked"
      ],
      [
        "▁ar",
        "ound"
      ],
      [
        "al",
        ","
      ],
      [
        "▁b",
        "it"
      ],
      [
        "i",
        "ent"
      ],
      [
        "▁O",
        "ne"
      ],
      [
        "a",
        "le"
      ],
      [
        "▁word",
        "s"
      ],
      [
        "us",
        "ed"
      ],
      [
        "▁can",
        "'t"
      ],
      [
        "T",
        "ER"
      ],
      [
        "▁b",
        "ig"
      ],
      [
        "▁re",
        "ason"
      ],
      [
        "▁d",
        "i"
      ],
      [
        "▁app",
        "ro"
      ],
      [
        "▁c",
        "at"
      ],
      [
        "ill",
        "ed"
      ],
      [
        "n",
        "ce"
      ],
      [
        "▁man",
        ","
      ],
      [
        "▁p",
        "ri"
      ],
      [
        "▁c",
        "ut"
      ],
      [
        "▁h",
        "ur"
      ],
      [
        "as",
        "h"
      ],
      [
        "▁af",
        "f"
      ],
      [
        "▁b",
        "ur"
      ],
      [
        "▁ab",
        "s"
      ],
      [
        "▁fo",
        "ot"
      ],
      [
        "▁m",
        "ount"
      ],
      [
        "ir",
        "d"
      ],
      [
        "iz",
        "ed"
      ],
      [
        "▁sw",
        "e"
      ],
      [
        "▁morn",
        "ing"
      ],
      [
        "-",
        "w"
      ],
      [
        "▁me",
        "et"
      ],
      [
        "▁de",
        "ath"
      ],
      [
        "▁",
        "ill"
      ],
      [
        "▁h",
        "on"
      ],
      [
        "▁re",
        "ally"
      ],
      [
        "▁ar",
        "t"
      ],
      [
        "▁ne",
        "cess"
      ],
      [
        "▁m",
        "is"
      ],
      [
        "▁B",
        "r"
      ],
      [
        "▁st",
        "ep"
      ],
      [
        "▁s",
        "ir"
      ],
      [
        "▁s",
        "ign"
      ],
      [
        "▁w",
        "ood"
      ],
      [
        "▁\"T",
        "hat"
      ],
      [
        "▁he",
        "ld"
      ],
      [
        "▁tim",
        "e,"
      ],
      [
        "▁per",
        "fect"
      ],
      [
        "er",
        "c"
      ],
      [
        "▁I",
        "nd"
      ],
      [
        "▁ke",
        "pt"
      ],
      [
        "▁T",
        "H"
      ],
      [
        "▁t",
        "en"
      ],
      [
        "or",
        "row"
      ],
      [
        "▁el",
        "se"
      ],
      [
        "▁s",
        "ight"
      ],
      [
        "▁W",
        "ith"
      ],
      [
        "in",
        "s"
      ],
      [
        "▁s",
        "ing"
      ],
      [
        "▁s",
        "ort"
      ],
      [
        "▁re",
        "d"
      ],
      [
        "ch",
        "ing"
      ],
      [
        "▁bec",
        "ame"
      ],
      [
        "▁ex",
        "per"
      ],
      [
        "▁there",
        "fore"
      ],
      [
        "▁doub",
        "t"
      ],
      [
        "▁w",
        "alk"
      ],
      [
        "er",
        "v"
      ],
      [
        "en",
        "g"
      ],
      [
        "▁A",
        "l"
      ],
      [
        "ie",
        "w"
      ],
      [
        "▁hum",
        "an"
      ],
      [
        "▁quest",
        "ion"
      ],
      [
        "▁us",
        "ed"
      ],
      [
        "▁sle",
        "ep"
      ],
      [
        "u",
        "ght"
      ],
      [
        "▁for",
        "t"
      ],
      [
        "▁r",
        "a"
      ],
      [
        "▁sh",
        "ip"
      ],
      [
        "▁al",
        "re"
      ],
      [
        "▁p",
        "ast"
      ],
      [
        "▁st",
        "o"
      ],
      [
        "▁U",
        "n"
      ],
      [
        "▁",
        "ed"
      ],
      [
        "▁\"",
        "C"
      ],
      [
        "▁ob",
        "ject"
      ],
      [
        "▁'",
        "W"
      ],
      [
        "▁N",
        "o"
      ],
      [
        "r",
        "y,"
      ],
      [
        "▁fe",
        "llow"
      ],
      [
        "▁b",
        "es"
      ],
      [
        "▁g",
        "one"
      ],
      [
        "▁who",
        "se"
      ],
      [
        "u",
        "ally"
      ],
      [
        "▁cir",
        "c"
      ],
      [
        "▁l",
        "ost"
      ],
      [
        "c",
        "ri"
      ],
      [
        "▁I'",
        "ll"
      ],
      [
        "on",
        "."
      ],
      [
        "▁sp",
        "irit"
      ],
      [
        "ic",
        "e,"
      ],
      [
        "um",
        "p"
      ],
      [
        "▁then",
        ","
      ],
      [
        "▁\"O",
        "h,"
      ],
      [
        "-",
        "\""
      ],
      [
        "ac",
        "ter"
      ],
      [
        "ci",
        "ous"
      ],
      [
        "▁",
        "."
      ],
      [
        "on",
        "e."
      ],
      [
        "▁C",
        "HA"
      ],
      [
        "▁ex",
        "cl"
      ],
      [
        "▁int",
        "ell"
      ],
      [
        "al",
        "s"
      ],
      [
        "▁c",
        "ent"
      ],
      [
        "▁s",
        "y"
      ],
      [
        "▁f",
        "air"
      ],
      [
        "▁com",
        "ing"
      ],
      [
        "▁t",
        "able"
      ],
      [
        "ow",
        "ed"
      ],
      [
        "▁sur",
        "pr"
      ],
      [
        "▁b",
        "ad"
      ],
      [
        "▁day",
        ","
      ],
      [
        "▁char",
        "acter"
      ],
      [
        "▁p",
        "ie"
      ],
      [
        "ure",
        "."
      ],
      [
        "▁vo",
        "ice"
      ],
      [
        "t",
        "hat"
      ],
      [
        "▁did",
        "n't"
      ],
      [
        "▁differe",
        "nt"
      ],
      [
        "ow",
        "s"
      ],
      [
        "▁diff",
        "ic"
      ],
      [
        "▁co",
        "ld"
      ],
      [
        "▁comp",
        "le"
      ],
      [
        "▁M",
        "y"
      ],
      [
        "▁pro",
        "per"
      ],
      [
        "m",
        "e"
      ],
      [
        "ud",
        "e"
      ],
      [
        "b",
        "ed"
      ],
      [
        "▁to",
        "wn"
      ],
      [
        "▁se",
        "ver"
      ],
      [
        "r",
        "ic"
      ],
      [
        "▁con",
        "st"
      ],
      [
        "ang",
        "er"
      ],
      [
        "l",
        "ish"
      ],
      [
        "▁qu",
        "iet"
      ],
      [
        "▁beaut",
        "iful"
      ],
      [
        "c",
        "es"
      ],
      [
        "▁f",
        "re"
      ],
      [
        "▁e",
        "ither"
      ],
      [
        "ol",
        "ut"
      ],
      [
        "ub",
        "lic"
      ],
      [
        "▁themsel",
        "ves"
      ],
      [
        "-",
        "and"
      ],
      [
        "in",
        ","
      ],
      [
        "▁s",
        "ch"
      ],
      [
        "▁kn",
        "own"
      ],
      [
        "▁toward",
        "s"
      ],
      [
        "▁c",
        "reat"
      ],
      [
        "▁\"",
        "G"
      ],
      [
        "▁eff",
        "ect"
      ],
      [
        "▁f",
        "a"
      ],
      [
        "om",
        "e,"
      ],
      [
        "▁go",
        "ld"
      ],
      [
        "▁m",
        "aster"
      ],
      [
        "et",
        ","
      ],
      [
        "▁w",
        "all"
      ],
      [
        "ou",
        "ble"
      ],
      [
        "▁br",
        "ing"
      ],
      [
        "n",
        "o"
      ],
      [
        "▁wh",
        "y"
      ],
      [
        "▁dre",
        "am"
      ],
      [
        "▁e",
        "qu"
      ],
      [
        "ain",
        "s"
      ],
      [
        "at",
        "ive"
      ],
      [
        "▁spo",
        "ke"
      ],
      [
        "▁re",
        "ached"
      ],
      [
        "il",
        "ed"
      ],
      [
        "▁you",
        "."
      ],
      [
        "s,",
        "\""
      ],
      [
        "at",
        "e,"
      ],
      [
        "p",
        "ar"
      ],
      [
        "ent",
        ","
      ],
      [
        "▁an",
        "im"
      ],
      [
        "▁alre",
        "ady"
      ],
      [
        "▁CHA",
        "P"
      ],
      [
        "▁CHAP",
        "TER"
      ],
      [
        "▁",
        "ir"
      ],
      [
        "▁B",
        "l"
      ],
      [
        "ha",
        "m"
      ],
      [
        "▁de",
        "m"
      ],
      [
        "▁li",
        "ve"
      ],
      [
        "▁ab",
        "ove"
      ],
      [
        "▁le",
        "g"
      ],
      [
        "▁beg",
        "in"
      ],
      [
        "▁return",
        "ed"
      ],
      [
        "b",
        "ody"
      ],
      [
        "▁TH",
        "E"
      ],
      [
        "▁I",
        "s"
      ],
      [
        "▁re",
        "qu"
      ],
      [
        "▁b",
        "ar"
      ],
      [
        "▁count",
        "ry"
      ],
      [
        "▁p",
        "ar"
      ],
      [
        "Q",
        "u"
      ],
      [
        "▁h",
        "us"
      ],
      [
        "as",
        "k"
      ],
      [
        "▁su",
        "m"
      ],
      [
        "▁again",
        "."
      ],
      [
        "-",
        "the"
      ],
      [
        "▁m",
        "aking"
      ],
      [
        "▁s",
        "id"
      ],
      [
        "▁a",
        "ble"
      ],
      [
        "▁m",
        "ist"
      ],
      [
        "▁l",
        "ist"
      ],
      [
        "im",
        "es"
      ],
      [
        "'",
        "ve"
      ],
      [
        "▁for",
        "g"
      ],
      [
        "ch",
        ","
      ],
      [
        "▁sever",
        "al"
      ],
      [
        "▁jo",
        "hn"
      ],
      [
        "▁c",
        "ap"
      ],
      [
        "▁with",
        "in"
      ],
      [
        "▁le",
        "arn"
      ],
      [
        "i",
        "ence"
      ],
      [
        "▁poss",
        "ess"
      ],
      [
        "▁m",
        "us"
      ],
      [
        "▁ex",
        "ist"
      ],
      [
        "▁t",
        "ou"
      ],
      [
        "▁s",
        "qu"
      ],
      [
        "▁o",
        "ught"
      ],
      [
        "th",
        "."
      ],
      [
        "▁ac",
        "ross"
      ],
      [
        "▁\"H",
        "e"
      ],
      [
        "▁eight",
        "een"
      ],
      [
        "▁s",
        "it"
      ],
      [
        "▁th",
        "us"
      ],
      [
        "▁me",
        "ans"
      ],
      [
        "pe",
        "nd"
      ],
      [
        "▁part",
        "ic"
      ],
      [
        "▁Ch",
        "rist"
      ],
      [
        "▁sou",
        "l"
      ],
      [
        "▁m",
        "ag"
      ],
      [
        "▁consid",
        "er"
      ],
      [
        "▁N",
        "ow"
      ],
      [
        "ci",
        "al"
      ],
      [
        "▁d",
        "aught"
      ],
      [
        "▁we",
        "ek"
      ],
      [
        "▁\"Y",
        "es,"
      ],
      [
        "▁bec",
        "ome"
      ],
      [
        "e",
        "ad"
      ],
      [
        "▁gr",
        "ow"
      ],
      [
        "▁gl",
        "ad"
      ],
      [
        "u",
        "se"
      ],
      [
        "▁su",
        "cc"
      ],
      [
        "▁vis",
        "it"
      ],
      [
        "o",
        "f"
      ],
      [
        "ance",
        "."
      ],
      [
        "▁\"W",
        "ell,"
      ],
      [
        "▁reg",
        "ard"
      ],
      [
        "e",
        "y"
      ],
      [
        "▁m",
        "id"
      ],
      [
        "▁n",
        "am"
      ],
      [
        "▁pro",
        "f"
      ],
      [
        "▁again",
        ","
      ],
      [
        "▁sub",
        "ject"
      ],
      [
        "▁it",
        "'s"
      ],
      [
        "▁r",
        "an"
      ],
      [
        "▁exp",
        "ress"
      ],
      [
        "▁so",
        "ft"
      ],
      [
        "it",
        "ies"
      ],
      [
        "▁up",
        ","
      ],
      [
        "▁im",
        "ag"
      ],
      [
        "end",
        "ed"
      ],
      [
        "▁res",
        "pect"
      ],
      [
        "▁le",
        "ad"
      ],
      [
        "▁L",
        "ord"
      ],
      [
        "▁es",
        "c"
      ],
      [
        "le",
        "."
      ],
      [
        "▁de",
        "v"
      ],
      [
        "▁whe",
        "ther"
      ],
      [
        "e",
        "c"
      ],
      [
        "▁e",
        "at"
      ],
      [
        "ay",
        ","
      ],
      [
        "▁C",
        "ar"
      ],
      [
        "b",
        "and"
      ],
      [
        "r",
        "act"
      ],
      [
        "is",
        "f"
      ],
      [
        "▁wif",
        "e"
      ],
      [
        "▁n",
        "um"
      ],
      [
        "▁con",
        "c"
      ],
      [
        "e",
        "as"
      ],
      [
        "an",
        "e"
      ],
      [
        "▁\"",
        "L"
      ],
      [
        "et",
        "s"
      ],
      [
        "▁now",
        ","
      ],
      [
        "g",
        "in"
      ],
      [
        "k",
        "ing"
      ],
      [
        "▁do",
        "g"
      ],
      [
        "▁b",
        "ody"
      ],
      [
        "▁m",
        "ove"
      ],
      [
        "▁C",
        "on"
      ],
      [
        "▁b",
        "ed"
      ],
      [
        "▁was",
        ","
      ],
      [
        "et",
        "h"
      ],
      [
        "▁per",
        "haps"
      ],
      [
        "▁p",
        "al"
      ],
      [
        "▁\"",
        "P"
      ],
      [
        "th",
        "ough"
      ],
      [
        "▁ar",
        "ri"
      ],
      [
        "▁p",
        "ain"
      ],
      [
        "▁G",
        "r"
      ],
      [
        "▁f",
        "ight"
      ],
      [
        "▁is",
        ","
      ],
      [
        "ct",
        "ion"
      ],
      [
        "ag",
        "e,"
      ],
      [
        "▁pur",
        "p"
      ],
      [
        "▁p",
        "os"
      ],
      [
        "▁t",
        "em"
      ],
      [
        "▁m",
        "od"
      ],
      [
        "▁w",
        "on't"
      ],
      [
        "▁v",
        "iew"
      ],
      [
        "▁T",
        "om"
      ],
      [
        "▁bre",
        "ak"
      ],
      [
        "▁",
        "est"
      ],
      [
        "▁d",
        "est"
      ],
      [
        "▁other",
        "s"
      ],
      [
        "▁nat",
        "ur"
      ],
      [
        "▁",
        "ut"
      ],
      [
        "ent",
        "s"
      ],
      [
        "▁app",
        "eared"
      ],
      [
        "▁f",
        "ine"
      ],
      [
        "▁car",
        "ried"
      ],
      [
        "▁ro",
        "ad"
      ],
      [
        "▁t",
        "ried"
      ],
      [
        "▁sha",
        "d"
      ],
      [
        "▁me",
        "re"
      ],
      [
        "▁c",
        "ast"
      ],
      [
        "▁c",
        "orn"
      ],
      [
        "▁S",
        "c"
      ],
      [
        "▁hus",
        "band"
      ],
      [
        "▁dis",
        "app"
      ],
      [
        "▁de",
        "cl"
      ],
      [
        "h",
        "il"
      ],
      [
        "▁",
        "Qu"
      ],
      [
        "ow",
        "d"
      ],
      [
        "▁out",
        ","
      ],
      [
        "▁mone",
        "y"
      ],
      [
        "▁s",
        "ister"
      ],
      [
        "▁f",
        "ail"
      ],
      [
        "ic",
        "e."
      ],
      [
        "▁N",
        "or"
      ],
      [
        "▁n",
        "in"
      ],
      [
        "▁fl",
        "o"
      ],
      [
        "▁partic",
        "ular"
      ],
      [
        "▁f",
        "ig"
      ],
      [
        "▁ha",
        "ir"
      ],
      [
        "▁acc",
        "ount"
      ],
      [
        "▁d",
        "uring"
      ],
      [
        "▁p",
        "ublic"
      ],
      [
        "itt",
        "ing"
      ],
      [
        "▁D",
        "o"
      ],
      [
        "▁N",
        "ot"
      ],
      [
        "▁str",
        "ange"
      ],
      [
        "▁\"W",
        "e"
      ],
      [
        "▁wom",
        "en"
      ],
      [
        "o",
        "v"
      ],
      [
        "e",
        "e"
      ],
      [
        "▁'",
        "T"
      ],
      [
        "▁co",
        "ll"
      ],
      [
        "▁The",
        "se"
      ],
      [
        "▁C",
        "l"
      ],
      [
        "▁le",
        "av"
      ],
      [
        "f",
        "or"
      ],
      [
        "ur",
        "d"
      ],
      [
        "▁ex",
        "cept"
      ],
      [
        "▁N",
        "ew"
      ],
      [
        "e",
        "f"
      ],
      [
        "▁pro",
        "du"
      ],
      [
        "c",
        "ul"
      ],
      [
        "▁w",
        "in"
      ],
      [
        "'",
        "d"
      ],
      [
        "u",
        "gg"
      ],
      [
        "▁st",
        "ay"
      ],
      [
        "▁s",
        "al"
      ],
      [
        "▁f",
        "av"
      ],
      [
        "▁sl",
        "ow"
      ],
      [
        "b",
        "y"
      ],
      [
        "n",
        "ess,"
      ],
      [
        "▁t",
        "aking"
      ],
      [
        "▁sch",
        "ool"
      ],
      [
        "▁d",
        "in"
      ],
      [
        "▁sa",
        "f"
      ],
      [
        "▁too",
        ","
      ],
      [
        "o",
        "ld"
      ],
      [
        "▁sat",
        "isf"
      ],
      [
        "▁ord",
        "er"
      ],
      [
        "▁follow",
        "ed"
      ],
      [
        "▁b",
        "ird"
      ],
      [
        "an",
        ","
      ],
      [
        "▁be",
        "ar"
      ],
      [
        "al",
        "."
      ],
      [
        "ra",
        "id"
      ],
      [
        "▁pro",
        "v"
      ],
      [
        "mer",
        "ic"
      ],
      [
        "▁b",
        "reat"
      ],
      [
        "ot",
        "e"
      ],
      [
        "▁re",
        "ady"
      ],
      [
        "ment",
        "s"
      ],
      [
        "▁mon",
        "th"
      ],
      [
        "m",
        "en"
      ],
      [
        "▁pret",
        "ty"
      ],
      [
        "e",
        "v"
      ],
      [
        "▁A",
        "meric"
      ],
      [
        "▁C",
        "a"
      ],
      [
        "▁car",
        "ry"
      ],
      [
        "▁w",
        "ild"
      ],
      [
        "▁imp",
        "ort"
      ],
      [
        "▁for",
        "ward"
      ],
      [
        "a",
        "x"
      ],
      [
        "ou",
        "th"
      ],
      [
        "us",
        "hed"
      ],
      [
        "▁tim",
        "es"
      ],
      [
        "med",
        "i"
      ],
      [
        "▁excl",
        "aim"
      ],
      [
        "▁c",
        "al"
      ],
      [
        "ll",
        "ed"
      ],
      [
        "ment",
        ","
      ],
      [
        "▁every",
        "thing"
      ],
      [
        "t",
        "ered"
      ],
      [
        "▁m",
        "ad"
      ],
      [
        "▁f",
        "ac"
      ],
      [
        "▁so",
        "ld"
      ],
      [
        "are",
        "nt"
      ],
      [
        "u",
        "s,"
      ],
      [
        "▁s",
        "ens"
      ],
      [
        "an",
        "n"
      ],
      [
        "▁tr",
        "ue"
      ],
      [
        "us",
        "s"
      ],
      [
        "iv",
        "es"
      ],
      [
        "▁supp",
        "ose"
      ],
      [
        "▁wind",
        "ow"
      ],
      [
        "w",
        "here"
      ],
      [
        "▁b",
        "od"
      ],
      [
        "▁fr",
        "ont"
      ],
      [
        "▁h",
        "ot"
      ],
      [
        "▁all",
        ","
      ],
      [
        "▁this",
        ","
      ],
      [
        "▁ro",
        "ck"
      ],
      [
        "▁bri",
        "ght"
      ],
      [
        "ver",
        "n"
      ],
      [
        "▁se",
        "ven"
      ],
      [
        "▁j",
        "ud"
      ],
      [
        "▁en",
        "c"
      ],
      [
        "▁nat",
        "ure"
      ],
      [
        "▁Eng",
        "lish"
      ],
      [
        "▁h",
        "ung"
      ],
      [
        "▁su",
        "s"
      ],
      [
        "k",
        "s"
      ],
      [
        "ter",
        "n"
      ],
      [
        "▁r",
        "id"
      ],
      [
        "▁ro",
        "se"
      ],
      [
        "▁pa",
        "per"
      ],
      [
        "▁cas",
        "e"
      ],
      [
        "itt",
        "ed"
      ],
      [
        "▁pr",
        "act"
      ],
      [
        "▁off",
        "ic"
      ],
      [
        "at",
        ","
      ],
      [
        "ant",
        "s"
      ],
      [
        "▁comm",
        "on"
      ],
      [
        "▁succ",
        "ess"
      ],
      [
        "▁d",
        "raw"
      ],
      [
        "▁he",
        "av"
      ],
      [
        "▁st",
        "ra"
      ],
      [
        "▁st",
        "ud"
      ],
      [
        "▁en",
        "g"
      ],
      [
        "▁ri",
        "ver"
      ],
      [
        "▁lau",
        "gh"
      ],
      [
        "▁dis",
        "p"
      ],
      [
        "▁sec",
        "ret"
      ],
      [
        "▁sudden",
        "ly"
      ],
      [
        "▁w",
        "alked"
      ],
      [
        "▁e",
        "le"
      ],
      [
        "▁tr",
        "ans"
      ],
      [
        "▁ent",
        "ered"
      ],
      [
        "▁want",
        "ed"
      ],
      [
        "▁f",
        "ast"
      ],
      [
        "▁d",
        "ut"
      ],
      [
        "▁prin",
        "ci"
      ],
      [
        "▁pr",
        "ot"
      ],
      [
        "a",
        "ven"
      ],
      [
        "is",
        "m"
      ],
      [
        "▁af",
        "raid"
      ],
      [
        "u",
        "it"
      ],
      [
        "ag",
        "ed"
      ],
      [
        "▁a",
        "p"
      ],
      [
        "▁do",
        "ct"
      ],
      [
        "▁occ",
        "as"
      ],
      [
        "d",
        "d"
      ],
      [
        "▁to",
        "p"
      ],
      [
        "sh",
        "ip"
      ],
      [
        "b",
        "r"
      ],
      [
        "▁sh",
        "o"
      ],
      [
        "u",
        "ct"
      ],
      [
        "▁ex",
        "am"
      ],
      [
        "▁bus",
        "iness"
      ],
      [
        "ir",
        "t"
      ],
      [
        "▁cl",
        "ot"
      ],
      [
        "k",
        ","
      ],
      [
        "▁h",
        "op"
      ],
      [
        "▁on",
        "e,"
      ],
      [
        "▁se",
        "lf"
      ],
      [
        "▁there",
        ","
      ],
      [
        "▁s",
        "on"
      ],
      [
        "▁c",
        "amp"
      ],
      [
        "▁sm",
        "o"
      ],
      [
        "g",
        "e,"
      ],
      [
        "▁tim",
        "e."
      ],
      [
        "▁t",
        "ear"
      ],
      [
        "▁c",
        "ross"
      ],
      [
        "▁sc",
        "ar"
      ],
      [
        "▁diffic",
        "ult"
      ],
      [
        "in",
        "ct"
      ],
      [
        "▁E",
        "d"
      ],
      [
        "ment",
        "."
      ],
      [
        "▁acc",
        "om"
      ],
      [
        "es",
        ";"
      ],
      [
        "us",
        "h"
      ],
      [
        "▁K",
        "ing"
      ],
      [
        "▁night",
        ","
      ],
      [
        "▁inst",
        "ant"
      ],
      [
        "▁S",
        "p"
      ],
      [
        "ence",
        "."
      ],
      [
        "▁ide",
        "a"
      ],
      [
        "in",
        "c"
      ],
      [
        "▁com",
        "fort"
      ],
      [
        "▁op",
        "ened"
      ],
      [
        "▁p",
        "ict"
      ],
      [
        "▁l",
        "ow"
      ],
      [
        "ain",
        ","
      ],
      [
        "▁your",
        "self"
      ],
      [
        "i",
        "ke"
      ],
      [
        "▁m",
        "ot"
      ],
      [
        "▁se",
        "vent"
      ],
      [
        "▁I'",
        "ve"
      ],
      [
        "▁del",
        "ight"
      ],
      [
        "re",
        "ad"
      ],
      [
        "g",
        "r"
      ],
      [
        "▁st",
        "ri"
      ],
      [
        "▁af",
        "fect"
      ],
      [
        "f",
        "orm"
      ],
      [
        "y",
        "ou"
      ],
      [
        "▁f",
        "ree"
      ],
      [
        "ion",
        "s,"
      ],
      [
        "▁r",
        "is"
      ],
      [
        "▁res",
        "ult"
      ],
      [
        "en",
        "n"
      ],
      [
        "▁comm",
        "and"
      ],
      [
        "▁tr",
        "uth"
      ],
      [
        "a",
        "j"
      ],
      [
        "▁s",
        "ense"
      ],
      [
        "▁c",
        "re"
      ],
      [
        "ar",
        "r"
      ],
      [
        "▁ent",
        "ire"
      ],
      [
        "st",
        "er"
      ],
      [
        "le",
        "t"
      ],
      [
        "▁O",
        "f"
      ],
      [
        "▁im",
        "medi"
      ],
      [
        "▁ac",
        "qu"
      ],
      [
        "▁",
        "ve"
      ],
      [
        "▁wor",
        "th"
      ],
      [
        "▁say",
        "s"
      ],
      [
        "▁num",
        "ber"
      ],
      [
        "-",
        "I"
      ],
      [
        "i",
        "es."
      ],
      [
        "et",
        "y"
      ],
      [
        "ru",
        "pt"
      ],
      [
        "▁p",
        "ay"
      ],
      [
        "il",
        "t"
      ],
      [
        "▁v",
        "ar"
      ],
      [
        "▁tr",
        "ouble"
      ],
      [
        "o",
        "int"
      ],
      [
        "it",
        "ut"
      ],
      [
        "▁d",
        "et"
      ],
      [
        "▁re",
        "pe"
      ],
      [
        "▁L",
        "et"
      ],
      [
        "▁qu",
        "ar"
      ],
      [
        "▁bl",
        "ood"
      ],
      [
        "▁feel",
        "ing"
      ],
      [
        "i",
        "ar"
      ],
      [
        "il",
        "ity"
      ],
      [
        "▁att",
        "empt"
      ],
      [
        "m",
        "on"
      ],
      [
        "re",
        "as"
      ],
      [
        "▁c",
        "aught"
      ],
      [
        "▁c",
        "ause"
      ],
      [
        "▁g",
        "ard"
      ],
      [
        "▁g",
        "rew"
      ],
      [
        "▁ear",
        "th"
      ],
      [
        "▁wr",
        "it"
      ],
      [
        "-",
        "a"
      ],
      [
        "O",
        "N"
      ],
      [
        "▁happ",
        "y"
      ],
      [
        "▁P",
        "er"
      ],
      [
        "▁l",
        "ab"
      ],
      [
        "▁s",
        "ad"
      ],
      [
        "ha",
        "nt"
      ],
      [
        "▁l",
        "ed"
      ],
      [
        "▁f",
        "ield"
      ],
      [
        "▁su",
        "gg"
      ],
      [
        "▁sugg",
        "est"
      ],
      [
        "ove",
        "red"
      ],
      [
        "at",
        "s"
      ],
      [
        "▁ha",
        "t"
      ],
      [
        "▁ha",
        "st"
      ],
      [
        "im",
        "ent"
      ],
      [
        "▁W",
        "ill"
      ],
      [
        "▁continu",
        "ed"
      ],
      [
        "ic",
        "ked"
      ],
      [
        "i",
        "ver"
      ],
      [
        "▁hand",
        ","
      ],
      [
        "▁himself",
        ","
      ],
      [
        "▁ter",
        "ri"
      ],
      [
        "ur",
        "ch"
      ],
      [
        "▁cha",
        "ir"
      ],
      [
        "..",
        "."
      ],
      [
        "▁purp",
        "ose"
      ],
      [
        "▁tr",
        "u"
      ],
      [
        "▁rem",
        "ain"
      ],
      [
        "g",
        "hed"
      ],
      [
        "o",
        "red"
      ],
      [
        "▁one",
        "."
      ],
      [
        "▁al",
        "one"
      ],
      [
        "▁seem",
        "s"
      ],
      [
        "al",
        "th"
      ],
      [
        "if",
        "t"
      ],
      [
        "anc",
        "es"
      ],
      [
        "in",
        "es"
      ],
      [
        "▁E",
        "l"
      ],
      [
        "▁b",
        "ott"
      ],
      [
        "▁c",
        "ry"
      ],
      [
        "▁an",
        "x"
      ],
      [
        "▁tr",
        "y"
      ],
      [
        "ord",
        "ing"
      ],
      [
        "▁b",
        "ank"
      ],
      [
        "▁b",
        "ene"
      ],
      [
        "▁u",
        "s,"
      ],
      [
        "▁answ",
        "er"
      ],
      [
        "▁gr",
        "and"
      ],
      [
        "im",
        "e"
      ],
      [
        "all",
        "y,"
      ],
      [
        "▁l",
        "aid"
      ],
      [
        "▁\"",
        "and"
      ],
      [
        "et",
        "."
      ],
      [
        "▁st",
        "ar"
      ],
      [
        "▁B",
        "y"
      ],
      [
        "▁say",
        ","
      ],
      [
        "▁l",
        "ady"
      ],
      [
        "▁d",
        "rew"
      ],
      [
        "▁thir",
        "ty"
      ],
      [
        "m",
        "p"
      ],
      [
        "▁d",
        "iv"
      ],
      [
        "▁sha",
        "r"
      ],
      [
        "▁h",
        "ill"
      ],
      [
        "▁me",
        "ant"
      ],
      [
        "▁stre",
        "ng"
      ],
      [
        "▁bu",
        "ild"
      ],
      [
        "▁gener",
        "al"
      ],
      [
        "▁Ca",
        "ptain"
      ],
      [
        "▁rece",
        "ived"
      ],
      [
        "▁Ind",
        "ian"
      ],
      [
        "▁t",
        "reat"
      ],
      [
        "▁str",
        "uck"
      ],
      [
        "▁sm",
        "ile"
      ],
      [
        "led",
        "ge"
      ],
      [
        "▁op",
        "in"
      ],
      [
        "▁near",
        "ly"
      ]
    ]
  }
}