{
  "version": "1.0",
  "truncation": null,
  "padding": null,
  "added_tokens": [
    {
      "id": 0,
      "content": "<UNK>",
      "single_word": false,
      "lstrip": false,
      "rstrip": false,
      "normalized": false,
      "special": true
    },
    {
      "id": 1,
      "content": "<PAD>",
      "single_word": false,
      "lstrip": false,
      "rstrip": false,
      "normalized": false,
      "special": true
    },
    {
      "id": 2,
      "content": "<BOS>",
      "single_word": false,
      "lstrip": false,
      "rstrip": false,
      "normalized": false,
      "special": true
    },
    {
      "id": 3,
      "content": "<EOS>",
      "single_word": false,
      "lstrip": false,
      "rstrip": false,
      "normalized": false,
      "special": true
    },
    {
      "id": 4,
      "content": "<AUDIO_START>",
      "single_word": false,
      "lstrip": false,
      "rstrip": false,
      "normalized": false,
      "special": true
    },
    {
      "id": 1801,
      "content": "<SPK_19>",
      "single_word": false,
      "lstrip": false,
      "rstrip": false,
      "normalized": false,
      "special": true
    },
    {
      "id": 1802,
      "content": "<SPK_26>",
      "single_word": false,
      "lstrip": false,
      "rstrip": false,
      "normalized": false,
      "special": true
    },
    {
      "id": 1803,
      "content": "<SPK_27>",
      "single_word": false,
      "lstrip": false,
      "rstrip": false,
      "normalized": false,
      "special": true
    },
    {
      "id": 1804,
      "content": "<SPK_32>",
      "single_word": false,
      "lstrip": false,
      "rstrip": false,
      "normalized": false,
      "special": true
    },
    {
      "id": 1805,
      "content": "<SPK_39>",
      "single_word": false,
      "lstrip": false,
      "rstrip": false,
      "normalized": false,
      "special": true
    },
    {
      "id": 1806,
      "content": "<SPK_40>",
      "single_word": false,
      "lstrip": false,
      "rstrip": false,
      "normalized": false,
      "special": true
    },
    {
      "id": 1807,
      "content": "<SPK_60>",
      "single_word": false,
      "lstrip": false,
      "rstrip": false,
      "normalized": false,
      "special": true
    },
    {
      "id": 1808,
      "content": "<SPK_78>",
      "single_word": false,
      "lstrip": false,
      "rstrip": false,
      "normalized": false,
      "special": true
    },
    {
      "id": 1809,
      "content": "<SPK_83>",
      "single_word": false,
      "lstrip": false,
      "rstrip": false,
      "normalized": false,
      "special": true
    },
    {
      "id": 1810,
      "content": "<SPK_87>",
      "single_word": false,
      "lstrip": false,
      "rstrip": false,
      "normalized": false,
      "special": true
    },
    {
      "id": 1811,
      "content": "<SPK_89>",
      "single_word": false,
      "lstrip": false,
      "rstrip": false,
      "normalized": false,
      "special": true
    },
    {
      "id": 1812,
      "content": "<SPK_103>",
      "single_word": false,
      "lstrip": false,
      "rstrip": false,
      "normalized": false,
      "special": true
    },
    {
      "id": 1813,
      "content": "<SPK_118>",
      "single_word": false,
      "lstrip": false,
      "rstrip": false,
      "normalized": false,
      "special": true
    },
    {
      "id": 1814,
      "content": "<SPK_125>",
      "single_word": false,
      "lstrip": false,
      "rstrip": false,
      "normalized": false,
      "special": true
    },
    {
      "id": 1815,
      "content": "<SPK_150>",
      "single_word": false,
      "lstrip": false,
      "rstrip": false,
      "normalized": false,
      "special": true
    },
    {
      "id": 1816,
      "content": "<SPK_163>",
      "single_word": false,
      "lstrip": false,
      "rstrip": false,
      "normalized": false,
      "special": true
    },
    {
      "id": 1817,
      "content": "<SPK_196>",
      "single_word": false,
      "lstrip": false,
      "rstrip": false,
      "normalized": false,
      "special": true
    },
    {
      "id": 1818,
      "content": "<SPK_198>",
      "single_word": false,
      "lstrip": false,
      "rstrip": false,
      "normalized": false,
      "special": true
    },
    {
      "id": 1819,
      "content": "<SPK_200>",
      "single_word": false,
      "lstrip": false,
      "rstrip": false,
      "normalized": false,
      "special": true
    },
    {
      "id": 1820,
      "content": "<SPK_201>",
      "single_word": false,
      "lstrip": false,
      "rstrip": false,
      "normalized": false,
      "special": true
    },
    {
      "id": 1821,
      "content": "<SPK_211>",
      "single_word": false,
      "lstrip": false,
      "rstrip": false,
      "normalized": false,
      "special": true
    },
    {
      "id": 1822,
      "content": "<SPK_226>",
      "single_word": false,
      "lstrip": false,
      "rstrip": false,
      "normalized": false,
      "special": true
    },
    {
      "id": 1823,
      "content": "<SPK_229>",
      "single_word": false,
      "lstrip": false,
      "rstrip": false,
      "normalized": false,
      "special": true
    },
    {
      "id": 1824,
      "content": "<SPK_233>",
      "single_word": false,
      "lstrip": false,
      "rstrip": false,
      "normalized": false,
      "special": true
    },
    {
      "id": 1825,
      "content": "<SPK_248>",
      "single_word": false,
      "lstrip": false,
      "rstrip": false,
      "normalized": false,
      "special": true
    },
    {
      "id": 1826,
      "content": "<SPK_250>",
      "single_word": false,
      "lstrip": false,
      "rstrip": false,
      "normalized": false,
      "special": true
    },
    {
      "id": 1827,
      "content": "<SPK_254>",
      "single_word": false,
      "lstrip": false,
      "rstrip": false,
      "normalized": false,
      "special": true
    },
    {
      "id": 1828,
      "content": "<SPK_289>",
      "single_word": false,
      "lstrip": false,
      "rstrip": false,
      "normalized": false,
      "special": true
    },
    {
      "id": 1829,
      "content": "<SPK_298>",
      "single_word": false,
      "lstrip": false,
      "rstrip": false,
      "normalized": false,
      "special": true
    },
    {
      "id": 1830,
      "content": "<SPK_302>",
      "single_word": false,
      "lstrip": false,
      "rstrip": false,
      "normalized": false,
      "special": true
    },
    {
      "id": 1831,
      "content": "<SPK_307>",
      "single_word": false,
      "lstrip": false,
      "rstrip": false,
      "normalized": false,
      "special": true
    },
    {
      "id": 1832,
      "content": "<SPK_311>",
      "single_word": false,
      "lstrip": false,
      "rstrip": false,
      "normalized": false,
      "special": true
    },
    {
      "id": 1833,
      "content": "<SPK_322>",
      "single_word": false,
      "lstrip": false,
      "rstrip": false,
      "normalized": false,
      "special": true
    },
    {
      "id": 1834,
      "content": "<SPK_332>",
      "single_word": false,
      "lstrip": false,
      "rstrip": false,
      "normalized": false,
      "special": true
    },
    {
      "id": 1835,
      "content": "<SPK_374>",
      "single_word": false,
      "lstrip": false,
      "rstrip": false,
      "normalized": false,
      "special": true
    },
    {
      "id": 1836,
      "content": "<SPK_403>",
      "single_word": false,
      "lstrip": false,
      "rstrip": false,
      "normalized": false,
      "special": true
    },
    {
      "id": 1837,
      "content": "<SPK_405>",
      "single_word": false,
      "lstrip": false,
      "rstrip": false,
      "normalized": false,
      "special": true
    },
    {
      "id": 1838,
      "content": "<SPK_412>",
      "single_word": false,
      "lstrip": false,
      "rstrip": false,
      "normalized": false,
      "special": true
    },
    {
      "id": 1839,
      "content": "<SPK_426>",
      "single_word": false,
      "lstrip": false,
      "rstrip": false,
      "normalized": false,
      "special": true
    },
    {
      "id": 1840,
      "content": "<SPK_446>",
      "single_word": false,
      "lstrip": false,
      "rstrip": false,
      "normalized": false,
      "special": true
    },
    {
      "id": 1841,
      "content": "<SPK_458>",
      "single_word": false,
      "lstrip": false,
      "rstrip": false,
      "normalized": false,
      "special": true
    },
    {
      "id": 1842,
      "content": "<SPK_460>",
      "single_word": false,
      "lstrip": false,
      "rstrip": false,
      "normalized": false,
      "special": true
    },
    {
      "id": 1843,
      "content": "<SPK_481>",
      "single_word": false,
      "lstrip": false,
      "rstrip": false,
      "normalized": false,
      "special": true
    },
    {
      "id": 1844,
      "content": "<SPK_587>",
      "single_word": false,
      "lstrip": false,
      "rstrip": false,
      "normalized": false,
      "special": true
    },
    {
      "id": 1845,
      "content": "<SPK_625>",
      "single_word": false,
      "lstrip": false,
      "rstrip": false,
      "normalized": false,
      "special": true
    },
    {
      "id": 1846,
      "content": "<SPK_669>",
      "single_word": false,
      "lstrip": false,
      "rstrip": false,
      "normalized": false,
      "special": true
    },
    {
      "id": 1847,
      "content": "<SPK_696>",
      "single_word": false,
      "lstrip": false,
      "rstrip": false,
      "normalized": false,
      "special": true
    },
    {
      "id": 1848,
      "content": "<SPK_730>",
      "single_word": false,
      "lstrip": false,
      "rstrip": false,
      "normalized": false,
      "special": true
    },
    {
      "id": 1849,
      "content": "<SPK_831>",
      "single_word": false,
      "lstrip": false,
      "rstrip": false,
      "normalized": false,
      "special": true
    },
    {
      "id": 1850,
      "content": "<SPK_839>",
      "single_word": false,
      "lstrip": false,
      "rstrip": false,
      "normalized": false,
      "special": true
    },
    {
      "id": 1851,
      "content": "<SPK_887>",
      "single_word": false,
      "lstrip": false,
      "rstrip": false,
      "normalized": false,
      "special": true
    },
    {
      "id": 1852,
      "content": "<SPK_909>",
      "single_word": false,
      "lstrip": false,
      "rstrip": false,
      "normalized": false,
      "special": true
    },
    {
      "id": 1853,
      "content": "<SPK_911>",
      "single_word": false,
      "lstrip": false,
      "rstrip": false,
      "normalized": false,
      "special": true
    },
    {
      "id": 1854,
      "content": "<SPK_1034>",
      "single_word": false,
      "lstrip": false,
      "rstrip": false,
      "normalized": false,
      "special": true
    },
    {
      "id": 1855,
      "content": "<SPK_1040>",
      "single_word": false,
      "lstrip": false,
      "rstrip": false,
      "normalized": false,
      "special": true
    },
    {
      "id": 1856,
      "content": "<SPK_1069>",
      "single_word": false,
      "lstrip": false,
      "rstrip": false,
      "normalized": false,
      "special": true
    },
    {
      "id": 1857,
      "content": "<SPK_1081>",
      "single_word": false,
      "lstrip": false,
      "rstrip": false,
      "normalized": false,
      "special": true
    },
    {
      "id": 1858,
      "content": "<SPK_1088>",
      "single_word": false,
      "lstrip": false,
      "rstrip": false,
      "normalized": false,
      "special": true
    },
    {
      "id": 1859,
      "content": "<SPK_1098>",
      "single_word": false,
      "lstrip": false,
      "rstrip": false,
      "normalized": false,
      "special": true
    },
    {
      "id": 1860,
      "content": "<SPK_1116>",
      "single_word": false,
      "lstrip": false,
      "rstrip": false,
      "normalized": false,
      "special": true
    },
    {
      "id": 1861,
      "content": "<SPK_1183>",
      "single_word": false,
      "lstrip": false,
      "rstrip": false,
      "normalized": false,
      "special": true
    },
    {
      "id": 1862,
      "content": "<SPK_1235>",
      "single_word": false,
      "lstrip": false,
      "rstrip": false,
      "normalized": false,
      "special": true
    },
    {
      "id": 1863,
      "content": "<SPK_1246>",
      "single_word": false,
      "lstrip": false,
      "rstrip": false,
      "normalized": false,
      "special": true
    },
    {
      "id": 1864,
      "content": "<SPK_1263>",
      "single_word": false,
      "lstrip": false,
      "rstrip": false,
      "normalized": false,
      "special": true
    },
    {
      "id": 1865,
      "content": "<SPK_1334>",
      "single_word": false,
      "lstrip": false,
      "rstrip": false,
      "normalized": false,
      "special": true
    },
    {
      "id": 1866,
      "content": "<SPK_1355>",
      "single_word": false,
      "lstrip": false,
      "rstrip": false,
      "normalized": false,
      "special": true
    },
    {
      "id": 1867,
      "content": "<SPK_1363>",
      "single_word": false,
      "lstrip": false,
      "rstrip": false,
      "normalized": false,
      "special": true
    },
    {
      "id": 1868,
      "content": "<SPK_1447>",
      "single_word": false,
      "lstrip": false,
      "rstrip": false,
      "normalized": false,
      "special": true
    },
    {
      "id": 1869,
      "content": "<SPK_1455>",
      "single_word": false,
      "lstrip": false,
      "rstrip": false,
      "normalized": false,
      "special": true
    },
    {
      "id": 1870,
      "content": "<SPK_1502>",
      "single_word": false,
      "lstrip": false,
      "rstrip": false,
      "normalized": false,
      "special": true
    },
    {
      "id": 1871,
      "content": "<SPK_1553>",
      "single_word": false,
      "lstrip": false,
      "rstrip": false,
      "normalized": false,
      "special": true
    },
    {
      "id": 1872,
      "content": "<SPK_1578>",
      "single_word": false,
      "lstrip": false,
      "rstrip": false,
      "normalized": false,
      "special": true
    },
    {
      "id": 1873,
      "content": "<SPK_1594>",
      "single_word": false,
      "lstrip": false,
      "rstrip": false,
      "normalized": false,
      "special": true
    },
    {
      "id": 1874,
      "content": "<SPK_1624>",
      "single_word": false,
      "lstrip": false,
      "rstrip": false,
      "normalized": false,
      "special": true
    },
    {
      "id": 1875,
      "content": "<SPK_1737>",
      "single_word": false,
      "lstrip": false,
      "rstrip": false,
      "normalized": false,
      "special": true
    },
    {
      "id": 1876,
      "content": "<SPK_1743>",
      "single_word": false,
      "lstrip": false,
      "rstrip": false,
      "normalized": false,
      "special": true
    },
    {
      "id": 1877,
      "content": "<SPK_1841>",
      "single_word": false,
      "lstrip": false,
      "rstrip": false,
      "normalized": false,
      "special": true
    },
    {
      "id": 1878,
      "content": "<SPK_1867>",
      "single_word": false,
      "lstrip": false,
      "rstrip": false,
      "normalized": false,
      "special": true
    },
    {
      "id": 1879,
      "content": "<SPK_1898>",
      "single_word": false,
      "lstrip": false,
      "rstrip": false,
      "normalized": false,
      "special": true
    },
    {
      "id": 1880,
      "content": "<SPK_1926>",
      "single_word": false,
      "lstrip": false,
      "rstrip": false,
      "normalized": false,
      "special": true
    },
    {
      "id": 1881,
      "content": "<SPK_1963>",
      "single_word": false,
      "lstrip": false,
      "rstrip": false,
      "normalized": false,
      "special": true
    },
    {
      "id": 1882,
      "content": "<SPK_1970>",
      "single_word": false,
      "lstrip": false,
      "rstrip": false,
      "normalized": false,
      "special": true
    },
    {
      "id": 1883,
      "content": "<SPK_1992>",
      "single_word": false,
      "lstrip": false,
      "rstrip": false,
      "normalized": false,
      "special": true
    },
    {
      "id": 1884,
      "content": "<SPK_2002>",
      "single_word": false,
      "lstrip": false,
      "rstrip": false,
      "normalized": false,
      "special": true
    },
    {
      "id": 1885,
      "content": "<SPK_2007>",
      "single_word": false,
      "lstrip": false,
      "rstrip": false,
      "normalized": false,
      "special": true
    },
    {
      "id": 1886,
      "content": "<SPK_2092>",
      "single_word": false,
      "lstrip": false,
      "rstrip": false,
      "normalized": false,
      "special": true
    },
    {
      "id": 1887,
      "content": "<SPK_2136>",
      "single_word": false,
      "lstrip": false,
      "rstrip": false,
      "normalized": false,
      "special": true
    },
    {
      "id": 1888,
      "content": "<SPK_2159>",
      "single_word": false,
      "lstrip": false,
      "rstrip": false,
      "normalized": false,
      "special": true
    },
    {
      "id": 1889,
      "content": "<SPK_2182>",
      "single_word": false,
      "lstrip": false,
      "rstrip": false,
      "normalized": false,
      "special": true
    },
    {
      "id": 1890,
      "content": "<SPK_2196>",
      "single_word": false,
      "lstrip": false,
      "rstrip": false,
      "normalized": false,
      "special": true
    },
    {
      "id": 1891,
      "content": "<SPK_2289>",
      "single_word": false,
      "lstrip": false,
      "rstrip": false,
      "normalized": false,
      "special": true
    },
    {
      "id": 1892,
      "content": "<SPK_2384>",
      "single_word": false,
      "lstrip": false,
      "rstrip": false,
      "normalized": false,
      "special": true
    },
    {
      "id": 1893,
      "content": "<SPK_2391>",
      "single_word": false,
      "lstrip": false,
      "rstrip": false,
      "normalized": false,
      "special": true
    },
    {
      "id": 1894,
      "content": "<SPK_2416>",
      "single_word": false,
      "lstrip": false,
      "rstrip": false,
      "normalized": false,
      "special": true
    },
    {
      "id": 1895,
      "content": "<SPK_2436>",
      "single_word": false,
      "lstrip": false,
      "rstrip": false,
      "normalized": false,
      "special": true
    },
    {
      "id": 1896,
      "content": "<SPK_2514>",
      "single_word": false,
      "lstrip": false,
      "rstrip": false,
      "normalized": false,
      "special": true
    },
    {
      "id": 1897,
      "content": "<SPK_2518>",
      "single_word": false,
      "lstrip": false,
      "rstrip": false,
      "normalized": false,
      "special": true
    },
    {
      "id": 1898,
      "content": "<SPK_2691>",
      "single_word": false,
      "lstrip": false,
      "rstrip": false,
      "normalized": false,
      "special": true
    },
    {
      "id": 1899,
      "content": "<SPK_2764>",
      "single_word": false,
      "lstrip": false,
      "rstrip": false,
      "normalized": false,
      "special": true
    },
    {
      "id": 1900,
      "content": "<SPK_2817>",
      "single_word": false,
      "lstrip": false,
      "rstrip": false,
      "normalized": false,
      "special": true
    },
    {
      "id": 1901,
      "content": "<SPK_2836>",
      "single_word": false,
      "lstrip": false,
      "rstrip": false,
      "normalized": false,
      "special": true
    },
    {
      "id": 1902,
      "content": "<SPK_2843>",
      "single_word": false,
      "lstrip": false,
      "rstrip": false,
      "normalized": false,
      "special": true
    },
    {
      "id": 1903,
      "content": "<SPK_2893>",
      "single_word": false,
      "lstrip": false,
      "rstrip": false,
      "normalized": false,
      "special": true
    },
    {
      "id": 1904,
      "content": "<SPK_2910>",
      "single_word": false,
      "lstrip": false,
      "rstrip": false,
      "normalized": false,
      "special": true
    },
    {
      "id": 1905,
      "content": "<SPK_2911>",
      "single_word": false,
      "lstrip": false,
      "rstrip": false,
      "normalized": false,
      "special": true
    },
    {
      "id": 1906,
      "content": "<SPK_2952>",
      "single_word": false,
      "lstrip": false,
      "rstrip": false,
      "normalized": false,
      "special": true
    },
    {
      "id": 1907,
      "content": "<SPK_2989>",
      "single_word": false,
      "lstrip": false,
      "rstrip": false,
      "normalized": false,
      "special": true
    },
    {
      "id": 1908,
      "content": "<SPK_3112>",
      "single_word": false,
      "lstrip": false,
      "rstrip": false,
      "normalized": false,
      "special": true
    },
    {
      "id": 1909,
      "content": "<SPK_3168>",
      "single_word": false,
      "lstrip": false,
      "rstrip": false,
      "normalized": false,
      "special": true
    },
    {
      "id": 1910,
      "content": "<SPK_3214>",
      "single_word": false,
      "lstrip": false,
      "rstrip": false,
      "normalized": false,
      "special": true
    },
    {
      "id": 1911,
      "content": "<SPK_3235>",
      "single_word": false,
      "lstrip": false,
      "rstrip": false,
      "normalized": false,
      "special": true
    },
    {
      "id": 1912,
      "content": "<SPK_3240>",
      "single_word": false,
      "lstrip": false,
      "rstrip": false,
      "normalized": false,
      "special": true
    },
    {
      "id": 1913,
      "content": "<SPK_3242>",
      "single_word": false,
      "lstrip": false,
      "rstrip": false,
      "normalized": false,
      "special": true
    },
    {
      "id": 1914,
      "content": "<SPK_3259>",
      "single_word": false,
      "lstrip": false,
      "rstrip": false,
      "normalized": false,
      "special": true
    },
    {
      "id": 1915,
      "content": "<SPK_3374>",
      "single_word": false,
      "lstrip": false,
      "rstrip": false,
      "normalized": false,
      "special": true
    },
    {
      "id": 1916,
      "content": "<SPK_3436>",
      "single_word": false,
      "lstrip": false,
      "rstrip": false,
      "normalized": false,
      "special": true
    },
    {
      "id": 1917,
      "content": "<SPK_3440>",
      "single_word": false,
      "lstrip": false,
      "rstrip": false,
      "normalized": false,
      "special": true
    },
    {
      "id": 1918,
      "content": "<SPK_3486>",
      "single_word": false,
      "lstrip": false,
      "rstrip": false,
      "normalized": false,
      "special": true
    },
    {
      "id": 1919,
      "content": "<SPK_3526>",
      "single_word": false,
      "lstrip": false,
      "rstrip": false,
      "normalized": false,
      "special": true
    },
    {
      "id": 1920,
      "content": "<SPK_3607>",
      "single_word": false,
      "lstrip": false,
      "rstrip": false,
      "normalized": false,
      "special": true
    },
    {
      "id": 1921,
      "content": "<SPK_3664>",
      "single_word": false,
      "lstrip": false,
      "rstrip": false,
      "normalized": false,
      "special": true
    },
    {
      "id": 1922,
      "content": "<SPK_3699>",
      "single_word": false,
      "lstrip": false,
      "rstrip": false,
      "normalized": false,
      "special": true
    },
    {
      "id": 1923,
      "content": "<SPK_3723>",
      "single_word": false,
      "lstrip": false,
      "rstrip": false,
      "normalized": false,
      "special": true
    },
    {
      "id": 1924,
      "content": "<SPK_3807>",
      "single_word": false,
      "lstrip": false,
      "rstrip": false,
      "normalized": false,
      "special": true
    },
    {
      "id": 1925,
      "content": "<SPK_3830>",
      "single_word": false,
      "lstrip": false,
      "rstrip": false,
      "normalized": false,
      "special": true
    },
    {
      "id": 1926,
      "content": "<SPK_3857>",
      "single_word": false,
      "lstrip": false,
      "rstrip": false,
      "normalized": false,
      "special": true
    },
    {
      "id": 1927,
      "content": "<SPK_3879>",
      "single_word": false,
      "lstrip": false,
      "rstrip": false,
      "normalized": false,
      "special": true
    },
    {
      "id": 1928,
      "content": "<SPK_3947>",
      "single_word": false,
      "lstrip": false,
      "rstrip": false,
      "normalized": false,
      "special": true
    },
    {
      "id": 1929,
      "content": "<SPK_3982>",
      "single_word": false,
      "lstrip": false,
      "rstrip": false,
      "normalized": false,
      "special": true
    },
    {
      "id": 1930,
      "content": "<SPK_3983>",
      "single_word": false,
      "lstrip": false,
      "rstrip": false,
      "normalized": false,
      "special": true
    },
    {
      "id": 1931,
      "content": "<SPK_4014>",
      "single_word": false,
      "lstrip": false,
      "rstrip": false,
      "normalized": false,
      "special": true
    },
    {
      "id": 1932,
      "content": "<SPK_4018>",
      "single_word": false,
      "lstrip": false,
      "rstrip": false,
      "normalized": false,
      "special": true
    },
    {
      "id": 1933,
      "content": "<SPK_4051>",
      "single_word": false,
      "lstrip": false,
      "rstrip": false,
      "normalized": false,
      "special": true
    },
    {
      "id": 1934,
      "content": "<SPK_4088>",
      "single_word": false,
      "lstrip": false,
      "rstrip": false,
      "normalized": false,
      "special": true
    },
    {
      "id": 1935,
      "content": "<SPK_4137>",
      "single_word": false,
      "lstrip": false,
      "rstrip": false,
      "normalized": false,
      "special": true
    },
    {
      "id": 1936,
      "content": "<SPK_4160>",
      "single_word": false,
      "lstrip": false,
      "rstrip": false,
      "normalized": false,
      "special": true
    },
    {
      "id": 1937,
      "content": "<SPK_4195>",
      "single_word": false,
      "lstrip": false,
      "rstrip": false,
      "normalized": false,
      "special": true
    },
    {
      "id": 1938,
      "content": "<SPK_4214>",
      "single_word": false,
      "lstrip": false,
      "rstrip": false,
      "normalized": false,
      "special": true
    },
    {
      "id": 1939,
      "content": "<SPK_4267>",
      "single_word": false,
      "lstrip": false,
      "rstrip": false,
      "normalized": false,
      "special": true
    },
    {
      "id": 1940,
      "content": "<SPK_4297>",
      "single_word": false,
      "lstrip": false,
      "rstrip": false,
      "normalized": false,
      "special": true
    },
    {
      "id": 1941,
      "content": "<SPK_4340>",
      "single_word": false,
      "lstrip": false,
      "rstrip": false,
      "normalized": false,
      "special": true
    },
    {
      "id": 1942,
      "content": "<SPK_4362>",
      "single_word": false,
      "lstrip": false,
      "rstrip": false,
      "normalized": false,
      "special": true
    },
    {
      "id": 1943,
      "content": "<SPK_4397>",
      "single_word": false,
      "lstrip": false,
      "rstrip": false,
      "normalized": false,
      "special": true
    },
    {
      "id": 1944,
      "content": "<SPK_4406>",
      "single_word": false,
      "lstrip": false,
      "rstrip": false,
      "normalized": false,
      "special": true
    },
    {
      "id": 1945,
      "content": "<SPK_4441>",
      "single_word": false,
      "lstrip": false,
      "rstrip": false,
      "normalized": false,
      "special": true
    },
    {
      "id": 1946,
      "content": "<SPK_4481>",
      "single_word": false,
      "lstrip": false,
      "rstrip": false,
      "normalized": false,
      "special": true
    },
    {
      "id": 1947,
      "content": "<SPK_4640>",
      "single_word": false,
      "lstrip": false,
      "rstrip": false,
      "normalized": false,
      "special": true
    },
    {
      "id": 1948,
      "content": "<SPK_4680>",
      "single_word": false,
      "lstrip": false,
      "rstrip": false,
      "normalized": false,
      "special": true
    },
    {
      "id": 1949,
      "content": "<SPK_4788>",
      "single_word": false,
      "lstrip": false,
      "rstrip": false,
      "normalized": false,
      "special": true
    },
    {
      "id": 1950,
      "content": "<SPK_4813>",
      "single_word": false,
      "lstrip": false,
      "rstrip": false,
      "normalized": false,
      "special": true
    },
    {
      "id": 1951,
      "content": "<SPK_4830>",
      "single_word": false,
      "lstrip": false,
      "rstrip": false,
      "normalized": false,
      "special": true
    },
    {
      "id": 1952,
      "content": "<SPK_4853>",
      "single_word": false,
      "lstrip": false,
      "rstrip": false,
      "normalized": false,
      "special": true
    },
    {
      "id": 1953,
      "content": "<SPK_4859>",
      "single_word": false,
      "lstrip": false,
      "rstrip": false,
      "normalized": false,
      "special": true
    },
    {
      "id": 1954,
      "content": "<SPK_4898>",
      "single_word": false,
      "lstrip": false,
      "rstrip": false,
      "normalized": false,
      "special": true
    },
    {
      "id": 1955,
      "content": "<SPK_5022>",
      "single_word": false,
      "lstrip": false,
      "rstrip": false,
      "normalized": false,
      "special": true
    },
    {
      "id": 1956,
      "content": "<SPK_5049>",
      "single_word": false,
      "lstrip": false,
      "rstrip": false,
      "normalized": false,
      "special": true
    },
    {
      "id": 1957,
      "content": "<SPK_5104>",
      "single_word": false,
      "lstrip": false,
      "rstrip": false,
      "normalized": false,
      "special": true
    },
    {
      "id": 1958,
      "content": "<SPK_5163>",
      "single_word": false,
      "lstrip": false,
      "rstrip": false,
      "normalized": false,
      "special": true
    },
    {
      "id": 1959,
      "content": "<SPK_5192>",
      "single_word": false,
      "lstrip": false,
      "rstrip": false,
      "normalized": false,
      "special": true
    },
    {
      "id": 1960,
      "content": "<SPK_5322>",
      "single_word": false,
      "lstrip": false,
      "rstrip": false,
      "normalized": false,
      "special": true
    },
    {
      "id": 1961,
      "content": "<SPK_5339>",
      "single_word": false,
      "lstrip": false,
      "rstrip": false,
      "normalized": false,
      "special": true
    },
    {
      "id": 1962,
      "content": "<SPK_5390>",
      "single_word": false,
      "lstrip": false,
      "rstrip": false,
      "normalized": false,
      "special": true
    },
    {
      "id": 1963,
      "content": "<SPK_5393>",
      "single_word": false,
      "lstrip": false,
      "rstrip": false,
      "normalized": false,
      "special": true
    },
    {
      "id": 1964,
      "content": "<SPK_5456>",
      "single_word": false,
      "lstrip": false,
      "rstrip": false,
      "normalized": false,
      "special": true
    },
    {
      "id": 1965,
      "content": "<SPK_5463>",
      "single_word": false,
      "lstrip": false,
      "rstrip": false,
      "normalized": false,
      "special": true
    },
    {
      "id": 1966,
      "content": "<SPK_5514>",
      "single_word": false,
      "lstrip": false,
      "rstrip": false,
      "normalized": false,
      "special": true
    },
    {
      "id": 1967,
      "content": "<SPK_5561>",
      "single_word": false,
      "lstrip": false,
      "rstrip": false,
      "normalized": false,
      "special": true
    },
    {
      "id": 1968,
      "content": "<SPK_5652>",
      "single_word": false,
      "lstrip": false,
      "rstrip": false,
      "normalized": false,
      "special": true
    },
    {
      "id": 1969,
      "content": "<SPK_5678>",
      "single_word": false,
      "lstrip": false,
      "rstrip": false,
      "normalized": false,
      "special": true
    },
    {
      "id": 1970,
      "content": "<SPK_5688>",
      "single_word": false,
      "lstrip": false,
      "rstrip": false,
      "normalized": false,
      "special": true
    },
    {
      "id": 1971,
      "content": "<SPK_5703>",
      "single_word": false,
      "lstrip": false,
      "rstrip": false,
      "normalized": false,
      "special": true
    },
    {
      "id": 1972,
      "content": "<SPK_5750>",
      "single_word": false,
      "lstrip": false,
      "rstrip": false,
      "normalized": false,
      "special": true
    },
    {
      "id": 1973,
      "content": "<SPK_5778>",
      "single_word": false,
      "lstrip": false,
      "rstrip": false,
      "normalized": false,
      "special": true
    },
    {
      "id": 1974,
      "content": "<SPK_5789>",
      "single_word": false,
      "lstrip": false,
      "rstrip": false,
      "normalized": false,
      "special": true
    },
    {
      "id": 1975,
      "content": "<SPK_5808>",
      "single_word": false,
      "lstrip": false,
      "rstrip": false,
      "normalized": false,
      "special": true
    },
    {
      "id": 1976,
      "content": "<SPK_5867>",
      "single_word": false,
      "lstrip": false,
      "rstrip": false,
      "normalized": false,
      "special": true
    },
    {
      "id": 1977,
      "content": "<SPK_6000>",
      "single_word": false,
      "lstrip": false,
      "rstrip": false,
      "normalized": false,
      "special": true
    },
    {
      "id": 1978,
      "content": "<SPK_6019>",
      "single_word": false,
      "lstrip": false,
      "rstrip": false,
      "normalized": false,
      "special": true
    },
    {
      "id": 1979,
      "content": "<SPK_6064>",
      "single_word": false,
      "lstrip": false,
      "rstrip": false,
      "normalized": false,
      "special": true
    },
    {
      "id": 1980,
      "content": "<SPK_6078>",
      "single_word": false,
      "lstrip": false,
      "rstrip": false,
      "normalized": false,
      "special": true
    },
    {
      "id": 1981,
      "content": "<SPK_6081>",
      "single_word": false,
      "lstrip": false,
      "rstrip": false,
      "normalized": false,
      "special": true
    },
    {
      "id": 1982,
      "content": "<SPK_6147>",
      "single_word": false,
      "lstrip": false,
      "rstrip": false,
      "normalized": false,
      "special": true
    },
    {
      "id": 1983,
      "content": "<SPK_6181>",
      "single_word": false,
      "lstrip": false,
      "rstrip": false,
      "normalized": false,
      "special": true
    },
    {
      "id": 1984,
      "content": "<SPK_6209>",
      "single_word": false,
      "lstrip": false,
      "rstrip": false,
      "normalized": false,
      "special": true
    },
    {
      "id": 1985,
      "content": "<SPK_6272>",
      "single_word": false,
      "lstrip": false,
      "rstrip": false,
      "normalized": false,
      "special": true
    },
    {
      "id": 1986,
      "content": "<SPK_6367>",
      "single_word": false,
      "lstrip": false,
      "rstrip": false,
      "normalized": false,
      "special": true
    },
    {
      "id": 1987,
      "content": "<SPK_6385>",
      "single_word": false,
      "lstrip": false,
      "rstrip": false,
      "normalized": false,
      "special": true
    },
    {
      "id": 1988,
      "content": "<SPK_6415>",
      "single_word": false,
      "lstrip": false,
      "rstrip": false,
      "normalized": false,
      "special": true
    },
    {
      "id": 1989,
      "content": "<SPK_6437>",
      "single_word": false,
      "lstrip": false,
      "rstrip": false,
      "normalized": false,
      "special": true
    },
    {
      "id": 1990,
      "content": "<SPK_6454>",
      "single_word": false,
      "lstrip": false,
      "rstrip": false,
      "normalized": false,
      "special": true
    },
    {
      "id": 1991,
      "content": "<SPK_6476>",
      "single_word": false,
      "lstrip": false,
      "rstrip": false,
      "normalized": false,
      "special": true
    },
    {
      "id": 1992,
      "content": "<SPK_6529>",
      "single_word": false,
      "lstrip": false,
      "rstrip": false,
      "normalized": false,
      "special": true
    },
    {
      "id": 1993,
      "content": "<SPK_6531>",
      "single_word": false,
      "lstrip": false,
      "rstrip": false,
      "normalized": false,
      "special": true
    },
    {
      "id": 1994,
      "content": "<SPK_6563>",
      "single_word": false,
      "lstrip": false,
      "rstrip": false,
      "normalized": false,
      "special": true
    },
    {
      "id": 1995,
      "content": "<SPK_6818>",
      "single_word": false,
      "lstrip": false,
      "rstrip": false,
      "normalized": false,
      "special": true
    },
    {
      "id": 1996,
      "content": "<SPK_6836>",
      "single_word": false,
      "lstrip": false,
      "rstrip": false,
      "normalized": false,
      "special": true
    },
    {
      "id": 1997,
      "content": "<SPK_6848>",
      "single_word": false,
      "lstrip": false,
      "rstrip": false,
      "normalized": false,
      "special": true
    },
    {
      "id": 1998,
      "content": "<SPK_6880>",
      "single_word": false,
      "lstrip": false,
      "rstrip": false,
      "normalized": false,
      "special": true
    },
    {
      "id": 1999,
      "content": "<SPK_6925>",
      "single_word": false,
      "lstrip": false,
      "rstrip": false,
      "normalized": false,
      "special": true
    },
    {
      "id": 2000,
      "content": "<SPK_7059>",
      "single_word": false,
      "lstrip": false,
      "rstrip": false,
      "normalized": false,
      "special": true
    },
    {
      "id": 2001,
      "content": "<SPK_7067>",
      "single_word": false,
      "lstrip": false,
      "rstrip": false,
      "normalized": false,
      "special": true
    },
    {
      "id": 2002,
      "content": "<SPK_7078>",
      "single_word": false,
      "lstrip": false,
      "rstrip": false,
      "normalized": false,
      "special": true
    },
    {
      "id": 2003,
      "content": "<SPK_7113>",
      "single_word": false,
      "lstrip": false,
      "rstrip": false,
      "normalized": false,
      "special": true
    },
    {
      "id": 2004,
      "content": "<SPK_7148>",
      "single_word": false,
      "lstrip": false,
      "rstrip": false,
      "normalized": false,
      "special": true
    },
    {
      "id": 2005,
      "content": "<SPK_7178>",
      "single_word": false,
      "lstrip": false,
      "rstrip": false,
      "normalized": false,
      "special": true
    },
    {
      "id": 2006,
      "content": "<SPK_7190>",
      "single_word": false,
      "lstrip": false,
      "rstrip": false,
      "normalized": false,
      "special": true
    },
    {
      "id": 2007,
      "content": "<SPK_7226>",
      "single_word": false,
      "lstrip": false,
      "rstrip": false,
      "normalized": false,
      "special": true
    },
    {
      "id": 2008,
      "content": "<SPK_7264>",
      "single_word": false,
      "lstrip": false,
      "rstrip": false,
      "normalized": false,
      "special": true
    },
    {
      "id": 2009,
      "content": "<SPK_7278>",
      "single_word": false,
      "lstrip": false,
      "rstrip": false,
      "normalized": false,
      "special": true
    },
    {
      "id": 2010,
      "content": "<SPK_7302>",
      "single_word": false,
      "lstrip": false,
      "rstrip": false,
      "normalized": false,
      "special": true
    },
    {
      "id": 2011,
      "content": "<SPK_7312>",
      "single_word": false,
      "lstrip": false,
      "rstrip": false,
      "normalized": false,
      "special": true
    },
    {
      "id": 2012,
      "content": "<SPK_7367>",
      "single_word": false,
      "lstrip": false,
      "rstrip": false,
      "normalized": false,
      "special": true
    },
    {
      "id": 2013,
      "content": "<SPK_7402>",
      "single_word": false,
      "lstrip": false,
      "rstrip": false,
      "normalized": false,
      "special": true
    },
    {
      "id": 2014,
      "content": "<SPK_7447>",
      "single_word": false,
      "lstrip": false,
      "rstrip": false,
      "normalized": false,
      "special": true
    },
    {
      "id": 2015,
      "content": "<SPK_7505>",
      "single_word": false,
      "lstrip": false,
      "rstrip": false,
      "normalized": false,
      "special": true
    },
    {
      "id": 2016,
      "content": "<SPK_7511>",
      "single_word": false,
      "lstrip": false,
      "rstrip": false,
      "normalized": false,
      "special": true
    },
    {
      "id": 2017,
      "content": "<SPK_7517>",
      "single_word": false,
      "lstrip": false,
      "rstrip": false,
      "normalized": false,
      "special": true
    },
    {
      "id": 2018,
      "content": "<SPK_7635>",
      "single_word": false,
      "lstrip": false,
      "rstrip": false,
      "normalized": false,
      "special": true
    },
    {
      "id": 2019,
      "content": "<SPK_7780>",
      "single_word": false,
      "lstrip": false,
      "rstrip": false,
      "normalized": false,
      "special": true
    },
    {
      "id": 2020,
      "content": "<SPK_7794>",
      "single_word": false,
      "lstrip": false,
      "rstrip": false,
      "normalized": false,
      "special": true
    },
    {
      "id": 2021,
      "content": "<SPK_7800>",
      "single_word": false,
      "lstrip": false,
      "rstrip": false,
      "normalized": false,
      "special": true
    },
    {
      "id": 2022,
      "content": "<SPK_7859>",
      "single_word": false,
      "lstrip": false,
      "rstrip": false,
      "normalized": false,
      "special": true
    },
    {
      "id": 2023,
      "content": "<SPK_8014>",
      "single_word": false,
      "lstrip": false,
      "rstrip": false,
      "normalized": false,
      "special": true
    },
    {
      "id": 2024,
      "content": "<SPK_8051>",
      "single_word": false,
      "lstrip": false,
      "rstrip": false,
      "normalized": false,
      "special": true
    },
    {
      "id": 2025,
      "content": "<SPK_8063>",
      "single_word": false,
      "lstrip": false,
      "rstrip": false,
      "normalized": false,
      "special": true
    },
    {
      "id": 2026,
      "content": "<SPK_8088>",
      "single_word": false,
      "lstrip": false,
      "rstrip": false,
      "normalized": false,
      "special": true
    },
    {
      "id": 2027,
      "content": "<SPK_8095>",
      "single_word": false,
      "lstrip": false,
      "rstrip": false,
      "normalized": false,
      "special": true
    },
    {
      "id": 2028,
      "content": "<SPK_8098>",
      "single_word": false,
      "lstrip": false,
      "rstrip": false,
      "normalized": false,
      "special": true
    },
    {
      "id": 2029,
      "content": "<SPK_8108>",
      "single_word": false,
      "lstrip": false,
      "rstrip": false,
      "normalized": false,
      "special": true
    },
    {
      "id": 2030,
      "content": "<SPK_8123>",
      "single_word": false,
      "lstrip": false,
      "rstrip": false,
      "normalized": false,
      "special": true
    },
    {
      "id": 2031,
      "content": "<SPK_8226>",
      "single_word": false,
      "lstrip": false,
      "rstrip": false,
      "normalized": false,
      "special": true
    },
    {
      "id": 2032,
      "content": "<SPK_8238>",
      "single_word": false,
      "lstrip": false,
      "rstrip": false,
      "normalized": false,
      "special": true
    },
    {
      "id": 2033,
      "content": "<SPK_8312>",
      "single_word": false,
      "lstrip": false,
      "rstrip": false,
      "normalized": false,
      "special": true
    },
    {
      "id": 2034,
      "content": "<SPK_8324>",
      "single_word": false,
      "lstrip": false,
      "rstrip": false,
      "normalized": false,
      "special": true
    },
    {
      "id": 2035,
      "content": "<SPK_8419>",
      "single_word": false,
      "lstrip": false,
      "rstrip": false,
      "normalized": false,
      "special": true
    },
    {
      "id": 2036,
      "content": "<SPK_8425>",
      "single_word": false,
      "lstrip": false,
      "rstrip": false,
      "normalized": false,
      "special": true
    },
    {
      "id": 2037,
      "content": "<SPK_8465>",
      "single_word": false,
      "lstrip": false,
      "rstrip": false,
      "normalized": false,
      "special": true
    },
    {
      "id": 2038,
      "content": "<SPK_8468>",
      "single_word": false,
      "lstrip": false,
      "rstrip": false,
      "normalized": false,
      "special": true
    },
    {
      "id": 2039,
      "content": "<SPK_8580>",
      "single_word": false,
      "lstrip": false,
      "rstrip": false,
      "normalized": false,
      "special": true
    },
    {
      "id": 2040,
      "content": "<SPK_8609>",
      "single_word": false,
      "lstrip": false,
      "rstrip": false,
      "normalized": false,
      "special": true
    },
    {
      "id": 2041,
      "content": "<SPK_8629>",
      "single_word": false,
      "lstrip": false,
      "rstrip": false,
      "normalized": false,
      "special": true
    },
    {
      "id": 2042,
      "content": "<SPK_8630>",
      "single_word": false,
      "lstrip": false,
      "rstrip": false,
      "normalized": false,
      "special": true
    },
    {
      "id": 2043,
      "content": "<SPK_8747>",
      "single_word": false,
      "lstrip": false,
      "rstrip": false,
      "normalized": false,
      "special": true
    },
    {
      "id": 2044,
      "content": "<SPK_8770>",
      "single_word": false,
      "lstrip": false,
      "rstrip": false,
      "normalized": false,
      "special": true
    },
    {
      "id": 2045,
      "content": "<SPK_8797>",
      "single_word": false,
      "lstrip": false,
      "rstrip": false,
      "normalized": false,
      "special": true
    },
    {
      "id": 2046,
      "content": "<SPK_8838>",
      "single_word": false,
      "lstrip": false,
      "rstrip": false,
      "normalized": false,
      "special": true
    },
    {
      "id": 2047,
      "content": "<SPK_8975>",
      "single_word": false,
      "lstrip": false,
      "rstrip": false,
      "normalized": false,
      "special": true
    }
  ],
  "normalizer": null,
  "pre_tokenizer": {
    "type": "Whitespace"
  },
  "post_processor": null,
  "decoder": null,
  "model": {
    "type": "BPE",
    "dropout": null,
    "unk_token": "<UNK>",
    "continuing_subword_prefix": null,
    "end_of_word_suffix": null,
    "fuse_unk": false,
    "byte_fallback": false,
    "vocab": {
      "<UNK>": 0,
      "<PAD>": 1,
      "<BOS>": 2,
      "<EOS>": 3,
      "<AUDIO_START>": 4,
      "!": 5,
      "\"": 6,
      "#": 7,
      "$": 8,
      "%": 9,
      "&": 10,
      "'": 11,
      "(": 12,
      ")": 13,
      "*": 14,
      "+": 15,
      ",": 16,
      "-": 17,
      ".": 18,
      "/": 19,
      "0": 20,
      "1": 21,
      "2": 22,
      "3": 23,
      "4": 24,
      "5": 25,
      "6": 26,
      "7": 27,
      "8": 28,
      "9": 29,
      ":": 30,
      ";": 31,
      "<": 32,
      "=": 33,
      ">": 34,
      "?": 35,
      "@": 36,
      "A": 37,
      "B": 38,
      "C": 39,
      "D": 40,
      "E": 41,
      "F": 42,
      "G": 43,
      "H": 44,
      "I": 45,
      "J": 46,
      "K": 47,
      "L": 48,
      "M": 49,
      "N": 50,
      "O": 51,
      "P": 52,
      "Q": 53,
      "R": 54,
      "S": 55,
      "T": 56,
      "U": 57,
      "V": 58,
      "W": 59,
      "X": 60,
      "Y": 61,
      "Z": 62,
      "[": 63,
      "\\": 64,
      "]": 65,
      "^": 66,
      "_": 67,
      "`": 68,
      "a": 69,
      "b": 70,
      "c": 71,
      "d": 72,
      "e": 73,
      "f": 74,
      "g": 75,
      "h": 76,
      "i": 77,
      "j": 78,
      "k": 79,
      "l": 80,
      "m": 81,
      "n": 82,
      "o": 83,
      "p": 84,
      "q": 85,
      "r": 86,
      "s": 87,
      "t": 88,
      "u": 89,
      "v": 90,
      "w": 91,
      "x": 92,
      "y": 93,
      "z": 94,
      "{": 95,
      "|": 96,
      "}": 97,
      "~": 98,
      "—": 99,
      "he": 100,
      "the": 101,
      "in": 102,
      "an": 103,
      "re": 104,
      "ou": 105,
      "on": 106,
      "th": 107,
      "er": 108,
      "at": 109,
      "ed": 110,
      "to": 111,
      "en": 112,
      "as": 113,
      "is": 114,
      "and": 115,
      "of": 116,
      "ing": 117,
      "or": 118,
      "ar": 119,
      "it": 120,
      "es": 121,
      "ll": 122,
      "le": 123,
      "ha": 124,
      "st": 125,
      "se": 126,
      "me": 127,
      "be": 128,
      "no": 129,
      "hi": 130,
      "ro": 131,
      "was": 132,
      "al": 133,
      "ch": 134,
      "ve": 135,
      "ld": 136,
      "id": 137,
      "ly": 138,
      "ce": 139,
      "gh": 140,
      "wi": 141,
      "that": 142,
      "ent": 143,
      "we": 144,
      "you": 145,
      "ut": 146,
      "his": 147,
      "li": 148,
      "for": 149,
      "ay": 150,
      "ion": 151,
      "ver": 152,
      "ad": 153,
      "ir": 154,
      "ri": 155,
      "ho": 156,
      "so": 157,
      "with": 158,
      "The": 159,
      "ac": 160,
      "all": 161,
      "ght": 162,
      "had": 163,
      "co": 164,
      "lo": 165,
      "un": 166,
      "ter": 167,
      "her": 168,
      "not": 169,
      "ke": 170,
      "ther": 171,
      "su": 172,
      "sa": 173,
      "ould": 174,
      "ic": 175,
      "fe": 176,
      "mo": 177,
      "pe": 178,
      "de": 179,
      "ow": 180,
      "one": 181,
      "ab": 182,
      "ne": 183,
      "red": 184,
      "him": 185,
      ".\"": 186,
      "ag": 187,
      "ur": 188,
      "out": 189,
      "ain": 190,
      "am": 191,
      "po": 192,
      "us": 193,
      "ti": 194,
      "nd": 195,
      "ess": 196,
      "she": 197,
      "et": 198,
      "up": 199,
      "my": 200,
      "con": 201,
      "whi": 202,
      "man": 203,
      ",\"": 204,
      "te": 205,
      "but": 206,
      "od": 207,
      "are": 208,
      "our": 209,
      "have": 210,
      "hat": 211,
      "ap": 212,
      "go": 213,
      "rom": 214,
      "ct": 215,
      "res": 216,
      "were": 217,
      "by": 218,
      "do": 219,
      "if": 220,
      "ex": 221,
      "ard": 222,
      "said": 223,
      "qu": 224,
      "il": 225,
      "mp": 226,
      "which": 227,
      "tr": 228,
      "whe": 229,
      "they": 230,
      "He": 231,
      "from": 232,
      "now": 233,
      "ul": 234,
      "fo": 235,
      "who": 236,
      "this": 237,
      "ant": 238,
      "ok": 239,
      "per": 240,
      "ind": 241,
      "ous": 242,
      "ca": 243,
      "ust": 244,
      "ight": 245,
      "pl": 246,
      "thing": 247,
      "ation": 248,
      "est": 249,
      "sel": 250,
      "them": 251,
      "very": 252,
      "?\"": 253,
      "ment": 254,
      "way": 255,
      "art": 256,
      "ill": 257,
      "end": 258,
      "ast": 259,
      "ge": 260,
      "would": 261,
      "ound": 262,
      "ra": 263,
      "ong": 264,
      "some": 265,
      "wor": 266,
      "wo": 267,
      "It": 268,
      "see": 269,
      "ate": 270,
      "their": 271,
      "ough": 272,
      "ak": 273,
      "there": 274,
      "sh": 275,
      "si": 276,
      "fa": 277,
      "ist": 278,
      "been": 279,
      "other": 280,
      "ack": 281,
      "pro": 282,
      "bo": 283,
      "op": 284,
      "itt": 285,
      "self": 286,
      "own": 287,
      "der": 288,
      "ven": 289,
      "af": 290,
      "hed": 291,
      "ck": 292,
      "what": 293,
      "will": 294,
      "But": 295,
      "ake": 296,
      "any": 297,
      "when": 298,
      "ers": 299,
      "gre": 300,
      "ity": 301,
      "could": 302,
      "com": 303,
      "pr": 304,
      "ure": 305,
      "did": 306,
      "can": 307,
      "into": 308,
      "fore": 309,
      "med": 310,
      "la": 311,
      "ry": 312,
      "ide": 313,
      "ought": 314,
      "day": 315,
      "like": 316,
      "mr": 317,
      "ep": 318,
      "more": 319,
      "your": 320,
      "ite": 321,
      "oun": 322,
      "able": 323,
      "know": 324,
      "ci": 325,
      "fi": 326,
      "ved": 327,
      "ittle": 328,
      "ine": 329,
      "row": 330,
      "urn": 331,
      "pp": 332,
      "about": 333,
      "And": 334,
      "dis": 335,
      "ance": 336,
      "mb": 337,
      "ass": 338,
      "look": 339,
      "gr": 340,
      "sto": 341,
      "ty": 342,
      "!\"": 343,
      "has": 344,
      "little": 345,
      "ade": 346,
      "than": 347,
      "its": 348,
      "ked": 349,
      "pos": 350,
      "ted": 351,
      "time": 352,
      "over": 353,
      "ink": 354,
      "sp": 355,
      "im": 356,
      "ence": 357,
      "el": 358,
      "tain": 359,
      "again": 360,
      "then": 361,
      "We": 362,
      "came": 363,
      "ear": 364,
      "She": 365,
      "ish": 366,
      "di": 367,
      "ree": 368,
      "ally": 369,
      "ble": 370,
      "ran": 371,
      "ren": 372,
      "come": 373,
      "ru": 374,
      "turn": 375,
      "age": 376,
      "gl": 377,
      "ol": 378,
      "ive": 379,
      "om": 380,
      "ort": 381,
      "ans": 382,
      "pre": 383,
      "men": 384,
      "mu": 385,
      "ey": 386,
      "hand": 387,
      "went": 388,
      "down": 389,
      "after": 390,
      "ig": 391,
      "ves": 392,
      "great": 393,
      "only": 394,
      "pres": 395,
      "led": 396,
      "upon": 397,
      "use": 398,
      "made": 399,
      "long": 400,
      "ward": 401,
      "should": 402,
      "You": 403,
      "ace": 404,
      "ated": 405,
      "--": 406,
      "ving": 407,
      "read": 408,
      "back": 409,
      "how": 410,
      "new": 411,
      "say": 412,
      "In": 413,
      "ull": 414,
      "act": 415,
      "old": 416,
      "cl": 417,
      "fir": 418,
      "two": 419,
      "vi": 420,
      "most": 421,
      "ue": 422,
      "under": 423,
      "ful": 424,
      "good": 425,
      "before": 426,
      "think": 427,
      "less": 428,
      "where": 429,
      "spe": 430,
      "much": 431,
      "hy": 432,
      "ions": 433,
      "br": 434,
      "ob": 435,
      "must": 436,
      "ried": 437,
      "arm": 438,
      "ef": 439,
      "light": 440,
      "ps": 441,
      "sha": 442,
      "int": 443,
      "get": 444,
      "ach": 445,
      "ness": 446,
      "right": 447,
      "well": 448,
      "des": 449,
      "just": 450,
      "part": 451,
      "king": 452,
      "let": 453,
      "never": 454,
      "chi": 455,
      "low": 456,
      "comp": 457,
      "every": 458,
      "ose": 459,
      "off": 460,
      "ies": 461,
      "ang": 462,
      "head": 463,
      "thought": 464,
      "ave": 465,
      "first": 466,
      "pt": 467,
      "even": 468,
      "They": 469,
      "ser": 470,
      "ary": 471,
      "jo": 472,
      "son": 473,
      "che": 474,
      "mon": 475,
      "don": 476,
      "thr": 477,
      "ning": 478,
      "No": 479,
      "these": 480,
      "mar": 481,
      "llow": 482,
      "such": 483,
      "bl": 484,
      "sc": 485,
      "ft": 486,
      "ouse": 487,
      "bet": 488,
      "There": 489,
      "may": 490,
      "ever": 491,
      "ath": 492,
      "here": 493,
      "ick": 494,
      "cour": 495,
      "too": 496,
      "What": 497,
      "beg": 498,
      "coun": 499,
      "himself": 500,
      "mer": 501,
      "rest": 502,
      "ple": 503,
      "ise": 504,
      "So": 505,
      "might": 506,
      "clo": 507,
      "ds": 508,
      "ts": 509,
      "eyes": 510,
      "mor": 511,
      "rep": 512,
      "tell": 513,
      "ily": 514,
      "though": 515,
      "sed": 516,
      "ice": 517,
      "night": 518,
      "make": 519,
      "ened": 520,
      "call": 521,
      "through": 522,
      "fl": 523,
      "cle": 524,
      "ople": 525,
      "sm": 526,
      "ud": 527,
      "ten": 528,
      "ater": 529,
      "side": 530,
      "away": 531,
      "min": 532,
      "found": 533,
      "That": 534,
      "cre": 535,
      "cor": 536,
      "full": 537,
      "cess": 538,
      "tre": 539,
      "life": 540,
      "att": 541,
      "gu": 542,
      "Then": 543,
      "car": 544,
      "vo": 545,
      "hen": 546,
      "ious": 547,
      "cer": 548,
      "people": 549,
      "This": 550,
      "lt": 551,
      "happ": 552,
      "hun": 553,
      "ie": 554,
      "turned": 555,
      "cted": 556,
      "put": 557,
      "bro": 558,
      "house": 559,
      "asked": 560,
      "cont": 561,
      "pass": 562,
      "tor": 563,
      "want": 564,
      "place": 565,
      "ng": 566,
      "without": 567,
      "ces": 568,
      "last": 569,
      "imp": 570,
      "still": 571,
      "ark": 572,
      "young": 573,
      "being": 574,
      "pa": 575,
      "take": 576,
      "took": 577,
      "cause": 578,
      "iss": 579,
      "room": 580,
      "many": 581,
      "ff": 582,
      "hor": 583,
      "stand": 584,
      "As": 585,
      "ways": 586,
      "au": 587,
      "face": 588,
      "while": 589,
      "appe": 590,
      "je": 591,
      "um": 592,
      "those": 593,
      "ced": 594,
      "looked": 595,
      "ner": 596,
      "ped": 597,
      "ting": 598,
      "ars": 599,
      "fri": 600,
      "three": 601,
      "sho": 602,
      "year": 603,
      "ase": 604,
      "father": 605,
      "aw": 606,
      "mber": 607,
      "saw": 608,
      "When": 609,
      "den": 610,
      "won": 611,
      "ished": 612,
      "gi": 613,
      "ction": 614,
      "try": 615,
      "left": 616,
      "seemed": 617,
      "ame": 618,
      "les": 619,
      "mat": 620,
      "land": 621,
      "cho": 622,
      "mes": 623,
      "nothing": 624,
      "got": 625,
      "ste": 626,
      "sur": 627,
      "ition": 628,
      "child": 629,
      "told": 630,
      "irl": 631,
      "door": 632,
      "aking": 633,
      "friend": 634,
      "ss": 635,
      "ings": 636,
      "moment": 637,
      "ress": 638,
      "girl": 639,
      "ations": 640,
      "lie": 641,
      "qui": 642,
      "If": 643,
      "set": 644,
      "work": 645,
      "shall": 646,
      "nat": 647,
      "yet": 648,
      "going": 649,
      "At": 650,
      "far": 651,
      "dist": 652,
      "hal": 653,
      "fort": 654,
      "another": 655,
      "bod": 656,
      "form": 657,
      "add": 658,
      "aut": 659,
      "ently": 660,
      "wa": 661,
      "cons": 662,
      "mind": 663,
      "tal": 664,
      "vent": 665,
      "always": 666,
      "heard": 667,
      "inter": 668,
      "bu": 669,
      "bre": 670,
      "same": 671,
      "ian": 672,
      "nor": 673,
      "vis": 674,
      "ared": 675,
      "find": 676,
      "pri": 677,
      "par": 678,
      "gn": 679,
      "wr": 680,
      "dr": 681,
      "give": 682,
      "mrs": 683,
      "Ch": 684,
      "bed": 685,
      "used": 686,
      "gg": 687,
      "heart": 688,
      "Yes": 689,
      "ks": 690,
      "feel": 691,
      "Be": 692,
      "dif": 693,
      "wind": 694,
      "een": 695,
      "care": 696,
      "against": 697,
      "hel": 698,
      "things": 699,
      "something": 700,
      "ince": 701,
      "lic": 702,
      "ters": 703,
      "Well": 704,
      "ling": 705,
      "ma": 706,
      "love": 707,
      "temp": 708,
      "boy": 709,
      "iz": 710,
      "air": 711,
      "ith": 712,
      "ot": 713,
      "lied": 714,
      "course": 715,
      "eight": 716,
      "ris": 717,
      "once": 718,
      "kind": 719,
      "sat": 720,
      "du": 721,
      "ew": 722,
      "stood": 723,
      "present": 724,
      "body": 725,
      "soon": 726,
      "bit": 727,
      "vid": 728,
      "because": 729,
      "cent": 730,
      "world": 731,
      ",--": 732,
      "His": 733,
      "ched": 734,
      "ub": 735,
      "home": 736,
      "ical": 737,
      "val": 738,
      "sible": 739,
      "sy": 740,
      "sub": 741,
      "few": 742,
      "enough": 743,
      "began": 744,
      "done": 745,
      "str": 746,
      "each": 747,
      "shi": 748,
      "spo": 749,
      "stru": 750,
      "knew": 751,
      "For": 752,
      "Oh": 753,
      "To": 754,
      "cha": 755,
      "oc": 756,
      "half": 757,
      "ail": 758,
      "cap": 759,
      "sure": 760,
      "sen": 761,
      "better": 762,
      "ready": 763,
      "six": 764,
      "rown": 765,
      "follow": 766,
      "person": 767,
      "tri": 768,
      "iness": 769,
      "fin": 770,
      "stre": 771,
      "cla": 772,
      "beaut": 773,
      "point": 774,
      "ord": 775,
      "fect": 776,
      "mother": 777,
      "pped": 778,
      "ged": 779,
      "quite": 780,
      "quest": 781,
      "open": 782,
      "pleas": 783,
      "ms": 784,
      "gen": 785,
      "near": 786,
      "called": 787,
      "felt": 788,
      "times": 789,
      "Th": 790,
      "haps": 791,
      "seen": 792,
      "cr": 793,
      "pow": 794,
      "ited": 795,
      "sil": 796,
      "gether": 797,
      "certain": 798,
      "pose": 799,
      "ular": 800,
      "hu": 801,
      "ton": 802,
      "ond": 803,
      "fully": 804,
      "four": 805,
      "together": 806,
      "eng": 807,
      "lar": 808,
      "sk": 809,
      "show": 810,
      "wh": 811,
      "reg": 812,
      "feren": 813,
      "cu": 814,
      "sol": 815,
      "years": 816,
      "ating": 817,
      "toward": 818,
      "myself": 819,
      "replied": 820,
      "ason": 821,
      "wal": 822,
      "pur": 823,
      "whole": 824,
      "words": 825,
      "woman": 826,
      "cur": 827,
      "ither": 828,
      "comm": 829,
      "hard": 830,
      "belie": 831,
      "lau": 832,
      "char": 833,
      "cri": 834,
      "fall": 835,
      "hour": 836,
      "pic": 837,
      "ween": 838,
      "play": 839,
      "On": 840,
      "gave": 841,
      "hn": 842,
      "ised": 843,
      "main": 844,
      "water": 845,
      "does": 846,
      "fam": 847,
      "aken": 848,
      "cried": 849,
      "cond": 850,
      "An": 851,
      ".'": 852,
      "ER": 853,
      "My": 854,
      "Miss": 855,
      "step": 856,
      "eas": 857,
      "sent": 858,
      "dred": 859,
      "fact": 860,
      "mas": 861,
      "sle": 862,
      "hold": 863,
      "between": 864,
      "Mar": 865,
      "also": 866,
      "raw": 867,
      "possible": 868,
      "morning": 869,
      "wever": 870,
      "keep": 871,
      "ery": 872,
      "mean": 873,
      "ket": 874,
      "til": 875,
      "fair": 876,
      "ather": 877,
      "lay": 878,
      "xt": 879,
      "ject": 880,
      "dre": 881,
      "round": 882,
      "feet": 883,
      "ended": 884,
      "ins": 885,
      "plain": 886,
      "name": 887,
      "rather": 888,
      "ered": 889,
      "war": 890,
      "ned": 891,
      "till": 892,
      "white": 893,
      "bus": 894,
      "hes": 895,
      "almost": 896,
      "cept": 897,
      "atch": 898,
      "voice": 899,
      "hundred": 900,
      "cy": 901,
      "oub": 902,
      "ments": 903,
      "En": 904,
      "ire": 905,
      "ied": 906,
      "mis": 907,
      "start": 908,
      "selves": 909,
      "among": 910,
      "cal": 911,
      "uck": 912,
      "ank": 913,
      "ref": 914,
      "cei": 915,
      "conf": 916,
      "Now": 917,
      "dden": 918,
      "amp": 919,
      "moun": 920,
      "ures": 921,
      "ached": 922,
      "contin": 923,
      "itu": 924,
      "having": 925,
      "word": 926,
      "wenty": 927,
      "dark": 928,
      "wered": 929,
      "wood": 930,
      "stran": 931,
      "herself": 932,
      "Co": 933,
      "sing": 934,
      "thir": 935,
      "need": 936,
      "expe": 937,
      "small": 938,
      "als": 939,
      "power": 940,
      "best": 941,
      "ger": 942,
      "peri": 943,
      "plac": 944,
      "days": 945,
      "gent": 946,
      "ile": 947,
      "iled": 948,
      "whom": 949,
      "ross": 950,
      "until": 951,
      "tru": 952,
      "hands": 953,
      "Car": 954,
      "emp": 955,
      "sup": 956,
      "brought": 957,
      "why": 958,
      "vered": 959,
      "anything": 960,
      "five": 961,
      "speak": 962,
      "inte": 963,
      "deed": 964,
      "ber": 965,
      "hope": 966,
      "poor": 967,
      "sun": 968,
      "real": 969,
      "passed": 970,
      "ken": 971,
      "joy": 972,
      "nu": 973,
      "tion": 974,
      "twenty": 975,
      "both": 976,
      "coming": 977,
      "ground": 978,
      "Engl": 979,
      "Why": 980,
      "ene": 981,
      "wonder": 982,
      "ron": 983,
      "ors": 984,
      "rel": 985,
      "however": 986,
      "interest": 987,
      "next": 988,
      "fic": 989,
      "inst": 990,
      "outh": 991,
      "suc": 992,
      "looking": 993,
      "TH": 994,
      "hind": 995,
      "ined": 996,
      "col": 997,
      "ately": 998,
      "answered": 999,
      "black": 1000,
      "matter": 1001,
      "..": 1002,
      "ses": 1003,
      "tive": 1004,
      "cut": 1005,
      "ane": 1006,
      "tered": 1007,
      "One": 1008,
      "ities": 1009,
      "dire": 1010,
      "All": 1011,
      "ering": 1012,
      "tow": 1013,
      "high": 1014,
      "along": 1015,
      "didn": 1016,
      "lad": 1017,
      "taken": 1018,
      "ceed": 1019,
      "held": 1020,
      "believe": 1021,
      "continu": 1022,
      "God": 1023,
      "dear": 1024,
      "app": 1025,
      "around": 1026,
      "john": 1027,
      "help": 1028,
      "run": 1029,
      "bes": 1030,
      "doub": 1031,
      "gone": 1032,
      "hear": 1033,
      "large": 1034,
      "eld": 1035,
      "ask": 1036,
      "sudden": 1037,
      "fell": 1038,
      "oney": 1039,
      "ably": 1040,
      "mil": 1041,
      "prom": 1042,
      "bar": 1043,
      "oud": 1044,
      "av": 1045,
      "gra": 1046,
      "ash": 1047,
      "expres": 1048,
      "How": 1049,
      "often": 1050,
      "Af": 1051,
      "az": 1052,
      "sound": 1053,
      "cannot": 1054,
      "differen": 1055,
      "bur": 1056,
      "cir": 1057,
      "dro": 1058,
      "sis": 1059,
      "order": 1060,
      "Do": 1061,
      ",'": 1062,
      "Her": 1063,
      "Un": 1064,
      "ding": 1065,
      "sion": 1066,
      "iful": 1067,
      "appeared": 1068,
      "CH": 1069,
      "cas": 1070,
      "pen": 1071,
      "book": 1072,
      "dri": 1073,
      "pap": 1074,
      "returned": 1075,
      "reason": 1076,
      "ham": 1077,
      "country": 1078,
      "ceived": 1079,
      "After": 1080,
      "appro": 1081,
      "Some": 1082,
      "given": 1083,
      "hon": 1084,
      "ial": 1085,
      "remain": 1086,
      "ster": 1087,
      "others": 1088,
      "close": 1089,
      "behind": 1090,
      "ute": 1091,
      "covered": 1092,
      "sum": 1093,
      "understand": 1094,
      "lle": 1095,
      "road": 1096,
      "fellow": 1097,
      "law": 1098,
      "brother": 1099,
      "gener": 1100,
      "teen": 1101,
      "With": 1102,
      "ances": 1103,
      "spir": 1104,
      "Re": 1105,
      "fac": 1106,
      "money": 1107,
      "spr": 1108,
      "reme": 1109,
      "leg": 1110,
      "ants": 1111,
      "wish": 1112,
      "ident": 1113,
      "perhaps": 1114,
      "fire": 1115,
      "pret": 1116,
      "thus": 1117,
      "window": 1118,
      "human": 1119,
      "ia": 1120,
      "pat": 1121,
      "became": 1122,
      "true": 1123,
      "ult": 1124,
      "cus": 1125,
      "death": 1126,
      "short": 1127,
      "gentle": 1128,
      "Go": 1129,
      "Sir": 1130,
      "ates": 1131,
      "illed": 1132,
      "posed": 1133,
      "Not": 1134,
      "ny": 1135,
      "port": 1136,
      "foot": 1137,
      "themselves": 1138,
      "since": 1139,
      "lear": 1140,
      "vers": 1141,
      "adm": 1142,
      "Is": 1143,
      "band": 1144,
      "hur": 1145,
      "really": 1146,
      "adv": 1147,
      "Jo": 1148,
      "ale": 1149,
      "bor": 1150,
      "blo": 1151,
      "draw": 1152,
      "ety": 1153,
      "ousand": 1154,
      "-\"": 1155,
      "vol": 1156,
      "leave": 1157,
      "soci": 1158,
      "uring": 1159,
      "rank": 1160,
      "clear": 1161,
      "ls": 1162,
      "sight": 1163,
      "thousand": 1164,
      "suff": 1165,
      "ign": 1166,
      "serv": 1167,
      "ches": 1168,
      "big": 1169,
      "iting": 1170,
      "either": 1171,
      "fif": 1172,
      "sir": 1173,
      "met": 1174,
      "wife": 1175,
      "happy": 1176,
      "question": 1177,
      "case": 1178,
      "grow": 1179,
      "igh": 1180,
      "sess": 1181,
      "alone": 1182,
      "abo": 1183,
      "quick": 1184,
      "mist": 1185,
      "swe": 1186,
      "itself": 1187,
      "ously": 1188,
      "St": 1189,
      "ump": 1190,
      "appear": 1191,
      "doubt": 1192,
      "wall": 1193,
      "fear": 1194,
      "aught": 1195,
      "ship": 1196,
      "Pr": 1197,
      "already": 1198,
      "cold": 1199,
      "deep": 1200,
      "known": 1201,
      "Ro": 1202,
      "TER": 1203,
      "fast": 1204,
      "dead": 1205,
      "whose": 1206,
      "prof": 1207,
      "view": 1208,
      "friends": 1209,
      "Ar": 1210,
      "Per": 1211,
      "pain": 1212,
      "sign": 1213,
      "ized": 1214,
      "eighteen": 1215,
      "beautiful": 1216,
      "Bl": 1217,
      "sou": 1218,
      "tly": 1219,
      "second": 1220,
      "chan": 1221,
      "ider": 1222,
      "lost": 1223,
      "supp": 1224,
      "mountain": 1225,
      "Of": 1226,
      "city": 1227,
      "ison": 1228,
      "children": 1229,
      "vil": 1230,
      "reco": 1231,
      "tory": 1232,
      "least": 1233,
      "meet": 1234,
      "possess": 1235,
      "sor": 1236,
      "kept": 1237,
      "stead": 1238,
      "towards": 1239,
      "sleep": 1240,
      "town": 1241,
      "lled": 1242,
      "move": 1243,
      "evening": 1244,
      "fortun": 1245,
      "Nor": 1246,
      "akes": 1247,
      "prin": 1248,
      "answ": 1249,
      "Let": 1250,
      "fer": 1251,
      "ild": 1252,
      "indeed": 1253,
      "return": 1254,
      "ele": 1255,
      "women": 1256,
      "quiet": 1257,
      "imed": 1258,
      "else": 1259,
      "Ho": 1260,
      "Ind": 1261,
      "ative": 1262,
      "live": 1263,
      "ric": 1264,
      "strong": 1265,
      "Po": 1266,
      "list": 1267,
      "sort": 1268,
      "ina": 1269,
      "aged": 1270,
      "proper": 1271,
      "vice": 1272,
      "count": 1273,
      "street": 1274,
      "family": 1275,
      "CHA": 1276,
      "tt": 1277,
      "dec": 1278,
      "ages": 1279,
      "nature": 1280,
      "continued": 1281,
      "Mo": 1282,
      "ier": 1283,
      "snow": 1284,
      "ze": 1285,
      "wee": 1286,
      "ush": 1287,
      "que": 1288,
      "simp": 1289,
      "cked": 1290,
      "horse": 1291,
      "bri": 1292,
      "flo": 1293,
      "fine": 1294,
      "mid": 1295,
      "mag": 1296,
      "pal": 1297,
      "tou": 1298,
      "ature": 1299,
      "position": 1300,
      "chief": 1301,
      "claimed": 1302,
      "charac": 1303,
      "hair": 1304,
      "within": 1305,
      "anger": 1306,
      "chool": 1307,
      "surpr": 1308,
      "ual": 1309,
      "hill": 1310,
      "entered": 1311,
      "tern": 1312,
      "THE": 1313,
      "lor": 1314,
      "mus": 1315,
      "making": 1316,
      "usu": 1317,
      "necess": 1318,
      "ific": 1319,
      "PTER": 1320,
      "ghed": 1321,
      "sever": 1322,
      "chang": 1323,
      "wel": 1324,
      "peter": 1325,
      "exc": 1326,
      "worth": 1327,
      "success": 1328,
      "CHAPTER": 1329,
      "pon": 1330,
      "tried": 1331,
      "ided": 1332,
      "cious": 1333,
      "circ": 1334,
      "Bo": 1335,
      "Con": 1336,
      "reached": 1337,
      "ths": 1338,
      "whether": 1339,
      "glad": 1340,
      "everything": 1341,
      "break": 1342,
      "ient": 1343,
      "ones": 1344,
      "wild": 1345,
      "riage": 1346,
      "except": 1347,
      "followed": 1348,
      "pict": 1349,
      "strange": 1350,
      "above": 1351,
      "hus": 1352,
      "ler": 1353,
      "tree": 1354,
      "alth": 1355,
      "dered": 1356,
      "arms": 1357,
      "Le": 1358,
      "ug": 1359,
      "moved": 1360,
      "agon": 1361,
      "urch": 1362,
      "Here": 1363,
      "begin": 1364,
      "lit": 1365,
      "shad": 1366,
      "log": 1367,
      "experi": 1368,
      "itted": 1369,
      "regard": 1370,
      "business": 1371,
      "Lord": 1372,
      "crow": 1373,
      "fur": 1374,
      "table": 1375,
      "tail": 1376,
      "become": 1377,
      "These": 1378,
      "sive": 1379,
      "flow": 1380,
      "gold": 1381,
      "ressed": 1382,
      "antly": 1383,
      "earth": 1384,
      "master": 1385,
      "watch": 1386,
      "resu": 1387,
      "state": 1388,
      "owed": 1389,
      "field": 1390,
      "dream": 1391,
      "Pat": 1392,
      "dep": 1393,
      "fav": 1394,
      "compan": 1395,
      "natur": 1396,
      "consider": 1397,
      "different": 1398,
      "Lo": 1399,
      "New": 1400,
      "bir": 1401,
      "cup": 1402,
      "fron": 1403,
      "late": 1404,
      "ph": 1405,
      "rid": 1406,
      "ught": 1407,
      "opened": 1408,
      "added": 1409,
      "spoke": 1410,
      "expected": 1411,
      "cast": 1412,
      "pie": 1413,
      "ory": 1414,
      "truth": 1415,
      "answer": 1416,
      "character": 1417,
      "several": 1418,
      "Ma": 1419,
      "bad": 1420,
      "past": 1421,
      "school": 1422,
      "umb": 1423,
      "pect": 1424,
      "qual": 1425,
      "story": 1426,
      "says": 1427,
      "partic": 1428,
      "By": 1429,
      "phy": 1430,
      "ats": 1431,
      "manner": 1432,
      "perfect": 1433,
      "itting": 1434,
      "wanted": 1435,
      "ctor": 1436,
      "vic": 1437,
      "vill": 1438,
      "ouble": 1439,
      "ley": 1440,
      "stri": 1441,
      "stone": 1442,
      "secre": 1443,
      "means": 1444,
      "comes": 1445,
      "ublic": 1446,
      "suddenly": 1447,
      "Al": 1448,
      "Gre": 1449,
      "ming": 1450,
      "pay": 1451,
      "ens": 1452,
      "lead": 1453,
      "across": 1454,
      "aren": 1455,
      "Amer": 1456,
      "From": 1457,
      "King": 1458,
      "mouth": 1459,
      "sof": 1460,
      "remar": 1461,
      "bey": 1462,
      "key": 1463,
      "race": 1464,
      "Americ": 1465,
      "lly": 1466,
      "carried": 1467,
      "IN": 1468,
      "Will": 1469,
      "evid": 1470,
      "free": 1471,
      "rup": 1472,
      "ased": 1473,
      "seven": 1474,
      "ention": 1475,
      "ained": 1476,
      "raid": 1477,
      "medi": 1478,
      "letter": 1479,
      "girls": 1480,
      "talk": 1481,
      "AN": 1482,
      "dest": 1483,
      "daught": 1484,
      "ror": 1485,
      "ured": 1486,
      "ines": 1487,
      "ides": 1488,
      "ility": 1489,
      "comple": 1490,
      "diffic": 1491,
      "number": 1492,
      "thor": 1493,
      "gri": 1494,
      "later": 1495,
      "sl": 1496,
      "ago": 1497,
      "yourself": 1498,
      "bring": 1499,
      "object": 1500,
      "placed": 1501,
      "uff": 1502,
      "sugg": 1503,
      "longer": 1504,
      "suppose": 1505,
      "fun": 1506,
      "rap": 1507,
      "smo": 1508,
      "slow": 1509,
      "received": 1510,
      "ism": 1511,
      "stay": 1512,
      "bel": 1513,
      "chance": 1514,
      "terri": 1515,
      "ending": 1516,
      "produ": 1517,
      "green": 1518,
      "common": 1519,
      "?'": 1520,
      "Ad": 1521,
      "Cap": 1522,
      "pes": 1523,
      "top": 1524,
      "arch": 1525,
      "arri": 1526,
      "sea": 1527,
      "ents": 1528,
      "front": 1529,
      "cli": 1530,
      "kn": 1531,
      "onel": 1532,
      "aint": 1533,
      "ushed": 1534,
      "exam": 1535,
      "feeling": 1536,
      "satis": 1537,
      "Come": 1538,
      "husband": 1539,
      "Bar": 1540,
      "Can": 1541,
      "Don": 1542,
      "fle": 1543,
      "public": 1544,
      "anim": 1545,
      "noon": 1546,
      "ames": 1547,
      "poc": 1548,
      "doing": 1549,
      "exclaimed": 1550,
      "sometimes": 1551,
      "idea": 1552,
      "effect": 1553,
      "gard": 1554,
      "mit": 1555,
      "mur": 1556,
      "ring": 1557,
      "taking": 1558,
      "ye": 1559,
      "inv": 1560,
      "aring": 1561,
      "iling": 1562,
      "itude": 1563,
      "pretty": 1564,
      "soul": 1565,
      "cry": 1566,
      "eat": 1567,
      "mand": 1568,
      "enter": 1569,
      "motion": 1570,
      "ney": 1571,
      "caught": 1572,
      "laughed": 1573,
      "English": 1574,
      "during": 1575,
      "line": 1576,
      "yes": 1577,
      "rose": 1578,
      "although": 1579,
      "comfort": 1580,
      "imag": 1581,
      "daughter": 1582,
      "Mon": 1583,
      "fish": 1584,
      "whis": 1585,
      "lip": 1586,
      "forth": 1587,
      "forward": 1588,
      "uni": 1589,
      "ists": 1590,
      "eye": 1591,
      "laugh": 1592,
      "ded": 1593,
      "fre": 1594,
      "warm": 1595,
      "lea": 1596,
      "ution": 1597,
      "deal": 1598,
      "tee": 1599,
      "plan": 1600,
      "grand": 1601,
      "stor": 1602,
      "class": 1603,
      "build": 1604,
      "curi": 1605,
      "Ri": 1606,
      "Whi": 1607,
      "ons": 1608,
      "bell": 1609,
      "utter": 1610,
      "lice": 1611,
      "sage": 1612,
      "resh": 1613,
      "respect": 1614,
      "died": 1615,
      "trees": 1616,
      "carry": 1617,
      "hung": 1618,
      "boys": 1619,
      "started": 1620,
      "athe": 1621,
      "cing": 1622,
      "miss": 1623,
      "ying": 1624,
      "arp": 1625,
      "vel": 1626,
      "ries": 1627,
      "ount": 1628,
      "Ger": 1629,
      "Qu": 1630,
      "fight": 1631,
      "velo": 1632,
      "blue": 1633,
      "sense": 1634,
      "remember": 1635,
      "particular": 1636,
      "dut": 1637,
      "fing": 1638,
      "ible": 1639,
      "os": 1640,
      "pond": 1641,
      "var": 1642,
      "lived": 1643,
      "river": 1644,
      "ung": 1645,
      "delight": 1646,
      "quar": 1647,
      "afraid": 1648,
      "cks": 1649,
      "drew": 1650,
      "England": 1651,
      "Perhaps": 1652,
      "Cor": 1653,
      "din": 1654,
      "sn": 1655,
      "xed": 1656,
      "lies": 1657,
      "formed": 1658,
      "ically": 1659,
      "therefore": 1660,
      "isted": 1661,
      "fice": 1662,
      "immedi": 1663,
      "scar": 1664,
      "happened": 1665,
      "tempt": 1666,
      "beauty": 1667,
      "Mer": 1668,
      "Se": 1669,
      "danger": 1670,
      "ges": 1671,
      "ius": 1672,
      "jud": 1673,
      "anx": 1674,
      "stra": 1675,
      "loved": 1676,
      "ager": 1677,
      "speci": 1678,
      "flu": 1679,
      "Gr": 1680,
      "Just": 1681,
      "ah": 1682,
      "reli": 1683,
      "lying": 1684,
      "tra": 1685,
      "trave": 1686,
      "standing": 1687,
      "steps": 1688,
      "paper": 1689,
      "suggest": 1690,
      "Every": 1691,
      "bb": 1692,
      "bright": 1693,
      "path": 1694,
      "enjoy": 1695,
      "utes": 1696,
      "liz": 1697,
      "unt": 1698,
      "grew": 1699,
      "fig": 1700,
      "stopped": 1701,
      "saying": 1702,
      "obser": 1703,
      "chair": 1704,
      "Lu": 1705,
      "Or": 1706,
      "Who": 1707,
      "fan": 1708,
      "sw": 1709,
      "wise": 1710,
      "inted": 1711,
      "intell": 1712,
      "ann": 1713,
      "tom": 1714,
      "arrow": 1715,
      "lean": 1716,
      "party": 1717,
      "quired": 1718,
      "subject": 1719,
      "sister": 1720,
      "recogn": 1721,
      "natural": 1722,
      "Captain": 1723,
      "Where": 1724,
      "filled": 1725,
      "len": 1726,
      "pit": 1727,
      "hig": 1728,
      "colle": 1729,
      "struck": 1730,
      "change": 1731,
      "bank": 1732,
      "ians": 1733,
      "mine": 1734,
      "tone": 1735,
      "resol": 1736,
      "entire": 1737,
      "cover": 1738,
      "trans": 1739,
      "broken": 1740,
      "walk": 1741,
      "expect": 1742,
      "ceeded": 1743,
      "changed": 1744,
      "phys": 1745,
      "figure": 1746,
      "De": 1747,
      "tle": 1748,
      "living": 1749,
      "rich": 1750,
      "seems": 1751,
      "miles": 1752,
      "Good": 1753,
      "garden": 1754,
      "Jim": 1755,
      "aven": 1756,
      "camp": 1757,
      "ired": 1758,
      "spl": 1759,
      "meant": 1760,
      "youth": 1761,
      "forget": 1762,
      "ament": 1763,
      "trouble": 1764,
      "seem": 1765,
      "talking": 1766,
      "occas": 1767,
      "gar": 1768,
      "pan": 1769,
      "ingly": 1770,
      "mere": 1771,
      "roy": 1772,
      "lot": 1773,
      "safe": 1774,
      "pet": 1775,
      "gover": 1776,
      "ender": 1777,
      "prob": 1778,
      "smile": 1779,
      "Uncle": 1780,
      "spring": 1781,
      "Tom": 1782,
      "ctive": 1783,
      "lips": 1784,
      "neigh": 1785,
      "dom": 1786,
      "explain": 1787,
      "box": 1788,
      "opin": 1789,
      "prison": 1790,
      "offic": 1791,
      "attention": 1792,
      "walked": 1793,
      "easy": 1794,
      "thirty": 1795,
      "quickly": 1796,
      "Phi": 1797,
      "bound": 1798,
      "gro": 1799,
      "nin": 1800
    },
    "merges": [
      "h e",
      "t he",
      "i n",
      "a n",
      "r e",
      "o u",
      "o n",
      "t h",
      "e r",
      "a t",
      "e d",
      "t o",
      "e n",
      "a s",
      "i s",
      "an d",
      "o f",
      "in g",
      "o r",
      "a r",
      "i t",
      "e s",
      "l l",
      "l e",
      "h a",
      "s t",
      "s e",
      "m e",
      "b e",
      "n o",
      "h i",
      "r o",
      "w as",
      "a l",
      "c h",
      "v e",
      "l d",
      "i d",
      "l y",
      "c e",
      "g h",
      "w i",
      "th at",
      "en t",
      "w e",
      "y ou",
      "u t",
      "h is",
      "l i",
      "f or",
      "a y",
      "i on",
      "v er",
      "a d",
      "i r",
      "r i",
      "h o",
      "s o",
      "wi th",
      "T he",
      "a c",
      "a ll",
      "gh t",
      "ha d",
      "c o",
      "l o",
      "u n",
      "t er",
      "he r",
      "no t",
      "k e",
      "the r",
      "s u",
      "s a",
      "ou ld",
      "i c",
      "f e",
      "m o",
      "p e",
      "d e",
      "o w",
      "on e",
      "a b",
      "n e",
      "re d",
      "hi m",
      ". \"",
      "a g",
      "u r",
      "ou t",
      "a in",
      "a m",
      "p o",
      "u s",
      "t i",
      "n d",
      "es s",
      "s he",
      "e t",
      "u p",
      "m y",
      "c on",
      "w hi",
      "m an",
      ", \"",
      "t e",
      "b ut",
      "o d",
      "a re",
      "ou r",
      "ha ve",
      "h at",
      "a p",
      "g o",
      "ro m",
      "c t",
      "re s",
      "we re",
      "b y",
      "d o",
      "i f",
      "e x",
      "ar d",
      "sa id",
      "q u",
      "i l",
      "m p",
      "whi ch",
      "t r",
      "w he",
      "the y",
      "H e",
      "f rom",
      "no w",
      "u l",
      "f o",
      "w ho",
      "th is",
      "an t",
      "o k",
      "p er",
      "in d",
      "ou s",
      "c a",
      "u st",
      "i ght",
      "p l",
      "th ing",
      "at ion",
      "es t",
      "se l",
      "the m",
      "ver y",
      "? \"",
      "m ent",
      "w ay",
      "ar t",
      "i ll",
      "en d",
      "as t",
      "g e",
      "w ould",
      "ou nd",
      "r a",
      "on g",
      "so me",
      "w or",
      "w o",
      "I t",
      "se e",
      "at e",
      "the ir",
      "ou gh",
      "a k",
      "the re",
      "s h",
      "s i",
      "f a",
      "is t",
      "be en",
      "o ther",
      "ac k",
      "p ro",
      "b o",
      "o p",
      "it t",
      "sel f",
      "ow n",
      "d er",
      "v en",
      "a f",
      "he d",
      "c k",
      "w hat",
      "wi ll",
      "B ut",
      "a ke",
      "an y",
      "whe n",
      "er s",
      "g re",
      "it y",
      "c ould",
      "co m",
      "p r",
      "u re",
      "d id",
      "c an",
      "in to",
      "fo re",
      "m ed",
      "l a",
      "r y",
      "id e",
      "ou ght",
      "d ay",
      "li ke",
      "m r",
      "e p",
      "mo re",
      "you r",
      "it e",
      "ou n",
      "ab le",
      "k now",
      "c i",
      "f i",
      "v ed",
      "itt le",
      "in e",
      "ro w",
      "ur n",
      "p p",
      "ab out",
      "A nd",
      "d is",
      "an ce",
      "m b",
      "as s",
      "lo ok",
      "g r",
      "s to",
      "t y",
      "! \"",
      "h as",
      "l ittle",
      "ad e",
      "th an",
      "it s",
      "k ed",
      "po s",
      "t ed",
      "ti me",
      "o ver",
      "in k",
      "s p",
      "i m",
      "en ce",
      "e l",
      "t ain",
      "ag ain",
      "the n",
      "W e",
      "ca me",
      "e ar",
      "S he",
      "is h",
      "d i",
      "re e",
      "all y",
      "b le",
      "r an",
      "re n",
      "co me",
      "r u",
      "t urn",
      "ag e",
      "g l",
      "o l",
      "i ve",
      "o m",
      "or t",
      "an s",
      "p re",
      "m en",
      "m u",
      "e y",
      "h and",
      "w ent",
      "d own",
      "af ter",
      "i g",
      "v es",
      "gre at",
      "on ly",
      "p res",
      "l ed",
      "up on",
      "u se",
      "m ade",
      "l ong",
      "w ard",
      "sh ould",
      "Y ou",
      "a ce",
      "at ed",
      "- -",
      "v ing",
      "re ad",
      "b ack",
      "ho w",
      "ne w",
      "s ay",
      "I n",
      "u ll",
      "ac t",
      "o ld",
      "c l",
      "f ir",
      "t wo",
      "v i",
      "mo st",
      "u e",
      "un der",
      "f ul",
      "go od",
      "be fore",
      "th ink",
      "l ess",
      "whe re",
      "s pe",
      "mu ch",
      "h y",
      "ion s",
      "b r",
      "o b",
      "m ust",
      "ri ed",
      "ar m",
      "e f",
      "li ght",
      "p s",
      "s ha",
      "in t",
      "g et",
      "a ch",
      "n ess",
      "ri ght",
      "we ll",
      "d es",
      "j ust",
      "p art",
      "k ing",
      "le t",
      "ne ver",
      "c hi",
      "lo w",
      "co mp",
      "e very",
      "o se",
      "of f",
      "i es",
      "an g",
      "he ad",
      "th ought",
      "a ve",
      "fir st",
      "p t",
      "e ven",
      "The y",
      "s er",
      "ar y",
      "j o",
      "s on",
      "c he",
      "m on",
      "d on",
      "th r",
      "n ing",
      "N o",
      "the se",
      "m ar",
      "ll ow",
      "su ch",
      "b l",
      "s c",
      "f t",
      "ou se",
      "be t",
      "The re",
      "m ay",
      "e ver",
      "a th",
      "he re",
      "ic k",
      "c our",
      "to o",
      "W hat",
      "be g",
      "c oun",
      "him self",
      "m er",
      "re st",
      "p le",
      "is e",
      "S o",
      "m ight",
      "c lo",
      "d s",
      "t s",
      "ey es",
      "m or",
      "re p",
      "te ll",
      "i ly",
      "th ough",
      "s ed",
      "i ce",
      "n ight",
      "m ake",
      "en ed",
      "c all",
      "thr ough",
      "f l",
      "c le",
      "op le",
      "s m",
      "u d",
      "t en",
      "at er",
      "s ide",
      "a way",
      "m in",
      "f ound",
      "T hat",
      "c re",
      "c or",
      "f ull",
      "c ess",
      "t re",
      "li fe",
      "at t",
      "g u",
      "The n",
      "c ar",
      "v o",
      "he n",
      "i ous",
      "c er",
      "pe ople",
      "T his",
      "l t",
      "ha pp",
      "h un",
      "i e",
      "turn ed",
      "ct ed",
      "p ut",
      "b ro",
      "h ouse",
      "as ked",
      "con t",
      "p ass",
      "to r",
      "w ant",
      "pl ace",
      "n g",
      "with out",
      "c es",
      "l ast",
      "i mp",
      "st ill",
      "ar k",
      "you ng",
      "be ing",
      "p a",
      "t ake",
      "to ok",
      "ca use",
      "is s",
      "ro om",
      "man y",
      "f f",
      "h or",
      "st and",
      "A s",
      "way s",
      "a u",
      "fa ce",
      "whi le",
      "ap pe",
      "j e",
      "u m",
      "th ose",
      "c ed",
      "look ed",
      "n er",
      "p ed",
      "t ing",
      "ar s",
      "f ri",
      "th ree",
      "s ho",
      "y ear",
      "as e",
      "fa ther",
      "a w",
      "mb er",
      "sa w",
      "W hen",
      "d en",
      "w on",
      "is hed",
      "g i",
      "ct ion",
      "tr y",
      "le ft",
      "see med",
      "a me",
      "l es",
      "m at",
      "l and",
      "ch o",
      "m es",
      "no thing",
      "go t",
      "st e",
      "su r",
      "it ion",
      "chi ld",
      "to ld",
      "ir l",
      "do or",
      "ak ing",
      "fri end",
      "s s",
      "ing s",
      "mo ment",
      "res s",
      "g irl",
      "ation s",
      "li e",
      "qu i",
      "I f",
      "se t",
      "wor k",
      "sha ll",
      "n at",
      "y et",
      "go ing",
      "A t",
      "f ar",
      "d ist",
      "ha l",
      "for t",
      "an other",
      "b od",
      "for m",
      "ad d",
      "a ut",
      "ent ly",
      "w a",
      "con s",
      "m ind",
      "t al",
      "v ent",
      "al ways",
      "he ard",
      "in ter",
      "b u",
      "b re",
      "sa me",
      "i an",
      "n or",
      "v is",
      "a red",
      "f ind",
      "p ri",
      "p ar",
      "g n",
      "w r",
      "d r",
      "g ive",
      "mr s",
      "C h",
      "b ed",
      "us ed",
      "g g",
      "he art",
      "Y es",
      "k s",
      "fe el",
      "B e",
      "d if",
      "w ind",
      "e en",
      "c are",
      "again st",
      "he l",
      "thing s",
      "some thing",
      "in ce",
      "li c",
      "ter s",
      "We ll",
      "l ing",
      "m a",
      "lo ve",
      "te mp",
      "bo y",
      "i z",
      "a ir",
      "i th",
      "o t",
      "li ed",
      "cour se",
      "e ight",
      "r is",
      "on ce",
      "k ind",
      "s at",
      "d u",
      "e w",
      "sto od",
      "pres ent",
      "bod y",
      "so on",
      "b it",
      "v id",
      "be cause",
      "c ent",
      "wor ld",
      ", --",
      "H is",
      "c hed",
      "u b",
      "ho me",
      "ic al",
      "v al",
      "si ble",
      "s y",
      "su b",
      "fe w",
      "en ough",
      "beg an",
      "d one",
      "st r",
      "e ach",
      "s hi",
      "s po",
      "st ru",
      "k new",
      "F or",
      "O h",
      "T o",
      "c ha",
      "o c",
      "hal f",
      "a il",
      "c ap",
      "su re",
      "s en",
      "bet ter",
      "read y",
      "si x",
      "row n",
      "fo llow",
      "per son",
      "t ri",
      "in ess",
      "f in",
      "st re",
      "c la",
      "be aut",
      "po int",
      "or d",
      "fe ct",
      "mo ther",
      "pp ed",
      "g ed",
      "qu ite",
      "qu est",
      "op en",
      "ple as",
      "m s",
      "g en",
      "ne ar",
      "call ed",
      "fe lt",
      "ti mes",
      "T h",
      "ha ps",
      "se en",
      "c r",
      "p ow",
      "it ed",
      "s il",
      "ge ther",
      "cer tain",
      "po se",
      "ul ar",
      "h u",
      "t on",
      "on d",
      "full y",
      "f our",
      "to gether",
      "en g",
      "l ar",
      "s k",
      "s how",
      "w h",
      "re g",
      "fe ren",
      "c u",
      "so l",
      "year s",
      "at ing",
      "to ward",
      "my self",
      "rep lied",
      "as on",
      "w al",
      "p ur",
      "who le",
      "wor ds",
      "wo man",
      "c ur",
      "i ther",
      "com m",
      "h ard",
      "be lie",
      "la u",
      "ch ar",
      "c ri",
      "f all",
      "h our",
      "p ic",
      "we en",
      "pl ay",
      "O n",
      "g ave",
      "h n",
      "is ed",
      "m ain",
      "w ater",
      "do es",
      "f am",
      "ak en",
      "c ried",
      "con d",
      "A n",
      ". '",
      "E R",
      "M y",
      "M iss",
      "st ep",
      "e as",
      "s ent",
      "d red",
      "f act",
      "m as",
      "s le",
      "ho ld",
      "bet ween",
      "M ar",
      "al so",
      "ra w",
      "pos sible",
      "mor ning",
      "we ver",
      "ke ep",
      "er y",
      "me an",
      "ke t",
      "ti l",
      "fa ir",
      "a ther",
      "l ay",
      "x t",
      "je ct",
      "d re",
      "r ound",
      "fe et",
      "end ed",
      "in s",
      "pl ain",
      "n ame",
      "ra ther",
      "e red",
      "w ar",
      "n ed",
      "ti ll",
      "wh ite",
      "b us",
      "he s",
      "al most",
      "ce pt",
      "at ch",
      "vo ice",
      "hun dred",
      "c y",
      "ou b",
      "ment s",
      "E n",
      "i re",
      "i ed",
      "m is",
      "st art",
      "sel ves",
      "am ong",
      "c al",
      "u ck",
      "an k",
      "re f",
      "ce i",
      "con f",
      "N ow",
      "d den",
      "am p",
      "m oun",
      "u res",
      "ac hed",
      "cont in",
      "it u",
      "ha ving",
      "wor d",
      "went y",
      "d ark",
      "we red",
      "wo od",
      "st ran",
      "her self",
      "C o",
      "s ing",
      "th ir",
      "ne ed",
      "ex pe",
      "sm all",
      "al s",
      "pow er",
      "b est",
      "g er",
      "per i",
      "pl ac",
      "day s",
      "g ent",
      "i le",
      "il ed",
      "who m",
      "ro ss",
      "un til",
      "tr u",
      "hand s",
      "C ar",
      "e mp",
      "su p",
      "br ought",
      "w hy",
      "ve red",
      "any thing",
      "fi ve",
      "spe ak",
      "in te",
      "de ed",
      "b er",
      "ho pe",
      "po or",
      "s un",
      "re al",
      "pass ed",
      "k en",
      "jo y",
      "n u",
      "t ion",
      "t wenty",
      "bo th",
      "com ing",
      "gr ound",
      "En gl",
      "W hy",
      "en e",
      "won der",
      "r on",
      "or s",
      "re l",
      "ho wever",
      "inte rest",
      "ne xt",
      "f ic",
      "in st",
      "ou th",
      "su c",
      "look ing",
      "T H",
      "h ind",
      "in ed",
      "co l",
      "ate ly",
      "ans wered",
      "bl ack",
      "mat ter",
      ". .",
      "s es",
      "ti ve",
      "c ut",
      "an e",
      "te red",
      "O ne",
      "it ies",
      "di re",
      "A ll",
      "er ing",
      "to w",
      "hi gh",
      "al ong",
      "did n",
      "l ad",
      "t aken",
      "ce ed",
      "he ld",
      "belie ve",
      "contin u",
      "G od",
      "de ar",
      "ap p",
      "ar ound",
      "jo hn",
      "hel p",
      "r un",
      "b es",
      "d oub",
      "g one",
      "he ar",
      "lar ge",
      "e ld",
      "as k",
      "su dden",
      "fe ll",
      "one y",
      "ab ly",
      "m il",
      "p rom",
      "b ar",
      "ou d",
      "a v",
      "g ra",
      "as h",
      "ex pres",
      "H ow",
      "of ten",
      "A f",
      "a z",
      "s ound",
      "can not",
      "dif feren",
      "b ur",
      "c ir",
      "d ro",
      "s is",
      "or der",
      "D o",
      ", '",
      "H er",
      "U n",
      "d ing",
      "s ion",
      "if ul",
      "appe ared",
      "C H",
      "c as",
      "p en",
      "bo ok",
      "d ri",
      "p ap",
      "re turned",
      "re ason",
      "ha m",
      "coun try",
      "cei ved",
      "Af ter",
      "ap pro",
      "So me",
      "gi ven",
      "h on",
      "i al",
      "re main",
      "st er",
      "other s",
      "clo se",
      "be hind",
      "ut e",
      "co vered",
      "su m",
      "under stand",
      "ll e",
      "ro ad",
      "fe llow",
      "la w",
      "bro ther",
      "gen er",
      "te en",
      "W ith",
      "an ces",
      "sp ir",
      "R e",
      "f ac",
      "m oney",
      "s pr",
      "re me",
      "le g",
      "ant s",
      "w ish",
      "id ent",
      "per haps",
      "fi re",
      "pre t",
      "th us",
      "wind ow",
      "hu man",
      "i a",
      "p at",
      "be came",
      "tr ue",
      "ul t",
      "c us",
      "de ath",
      "sh ort",
      "gent le",
      "G o",
      "S ir",
      "at es",
      "ill ed",
      "pos ed",
      "No t",
      "n y",
      "p ort",
      "fo ot",
      "them selves",
      "s ince",
      "le ar",
      "ver s",
      "ad m",
      "I s",
      "b and",
      "h ur",
      "re ally",
      "ad v",
      "J o",
      "a le",
      "b or",
      "b lo",
      "d raw",
      "et y",
      "ous and",
      "- \"",
      "v ol",
      "le ave",
      "so ci",
      "ur ing",
      "ran k",
      "cle ar",
      "l s",
      "s ight",
      "th ousand",
      "su ff",
      "ig n",
      "ser v",
      "che s",
      "b ig",
      "it ing",
      "e ither",
      "f if",
      "s ir",
      "me t",
      "wi fe",
      "happ y",
      "quest ion",
      "c ase",
      "g row",
      "i gh",
      "s ess",
      "al one",
      "ab o",
      "qu ick",
      "m ist",
      "s we",
      "it self",
      "ous ly",
      "S t",
      "u mp",
      "appe ar",
      "doub t",
      "w all",
      "fe ar",
      "au ght",
      "shi p",
      "P r",
      "al ready",
      "co ld",
      "de ep",
      "know n",
      "R o",
      "T ER",
      "f ast",
      "de ad",
      "who se",
      "pr of",
      "vi ew",
      "friend s",
      "A r",
      "P er",
      "p ain",
      "si gn",
      "iz ed",
      "eight een",
      "beaut iful",
      "B l",
      "s ou",
      "t ly",
      "se cond",
      "ch an",
      "id er",
      "lo st",
      "su pp",
      "moun tain",
      "O f",
      "c ity",
      "is on",
      "child ren",
      "v il",
      "re co",
      "to ry",
      "le ast",
      "me et",
      "pos sess",
      "s or",
      "ke pt",
      "ste ad",
      "toward s",
      "sle ep",
      "tow n",
      "ll ed",
      "mo ve",
      "even ing",
      "fort un",
      "N or",
      "ak es",
      "pr in",
      "ans w",
      "L et",
      "f er",
      "i ld",
      "in deed",
      "re turn",
      "e le",
      "wo men",
      "qui et",
      "i med",
      "el se",
      "H o",
      "I nd",
      "at ive",
      "li ve",
      "ri c",
      "str ong",
      "P o",
      "l ist",
      "s ort",
      "in a",
      "ag ed",
      "pro per",
      "vi ce",
      "coun t",
      "stre et",
      "fam ily",
      "CH A",
      "t t",
      "de c",
      "ag es",
      "nat ure",
      "continu ed",
      "M o",
      "i er",
      "s now",
      "z e",
      "we e",
      "us h",
      "qu e",
      "si mp",
      "ck ed",
      "hor se",
      "b ri",
      "f lo",
      "f ine",
      "m id",
      "m ag",
      "p al",
      "t ou",
      "at ure",
      "pos ition",
      "chi ef",
      "cla imed",
      "char ac",
      "ha ir",
      "with in",
      "ang er",
      "cho ol",
      "sur pr",
      "u al",
      "hi ll",
      "ent ered",
      "ter n",
      "TH E",
      "l or",
      "m us",
      "m aking",
      "u su",
      "ne cess",
      "if ic",
      "P TER",
      "g hed",
      "se ver",
      "ch ang",
      "we l",
      "pe ter",
      "ex c",
      "wor th",
      "suc cess",
      "CHA PTER",
      "p on",
      "t ried",
      "id ed",
      "ci ous",
      "cir c",
      "B o",
      "C on",
      "re ached",
      "th s",
      "whe ther",
      "gl ad",
      "every thing",
      "bre ak",
      "i ent",
      "on es",
      "wi ld",
      "ri age",
      "ex cept",
      "follow ed",
      "pic t",
      "stran ge",
      "abo ve",
      "h us",
      "l er",
      "t ree",
      "al th",
      "de red",
      "arm s",
      "L e",
      "u g",
      "mo ved",
      "ag on",
      "ur ch",
      "He re",
      "beg in",
      "l it",
      "s had",
      "lo g",
      "ex peri",
      "itt ed",
      "reg ard",
      "bus iness",
      "L ord",
      "c row",
      "f ur",
      "t able",
      "t ail",
      "be come",
      "The se",
      "si ve",
      "f low",
      "go ld",
      "res sed",
      "ant ly",
      "ear th",
      "mas ter",
      "w atch",
      "re su",
      "st ate",
      "ow ed",
      "fi eld",
      "dre am",
      "P at",
      "de p",
      "fa v",
      "comp an",
      "nat ur",
      "cons ider",
      "differen t",
      "L o",
      "N ew",
      "b ir",
      "c up",
      "f ron",
      "l ate",
      "p h",
      "r id",
      "u ght",
      "op ened",
      "add ed",
      "spo ke",
      "expe cted",
      "c ast",
      "p ie",
      "or y",
      "tru th",
      "answ er",
      "charac ter",
      "sever al",
      "M a",
      "b ad",
      "p ast",
      "s chool",
      "u mb",
      "pe ct",
      "qu al",
      "sto ry",
      "say s",
      "part ic",
      "B y",
      "p hy",
      "at s",
      "man ner",
      "per fect",
      "itt ing",
      "want ed",
      "c tor",
      "v ic",
      "v ill",
      "ou ble",
      "le y",
      "st ri",
      "st one",
      "se cre",
      "me ans",
      "com es",
      "ub lic",
      "sudden ly",
      "A l",
      "G re",
      "m ing",
      "p ay",
      "en s",
      "le ad",
      "ac ross",
      "are n",
      "A mer",
      "F rom",
      "K ing",
      "m outh",
      "s of",
      "re mar",
      "be y",
      "ke y",
      "ra ce",
      "Amer ic",
      "ll y",
      "car ried",
      "I N",
      "W ill",
      "e vid",
      "f ree",
      "r up",
      "as ed",
      "se ven",
      "ent ion",
      "ain ed",
      "ra id",
      "med i",
      "let ter",
      "girl s",
      "tal k",
      "A N",
      "d est",
      "d aught",
      "r or",
      "u red",
      "in es",
      "id es",
      "il ity",
      "comp le",
      "dif fic",
      "nu mber",
      "th or",
      "g ri",
      "l ater",
      "s l",
      "ag o",
      "your self",
      "br ing",
      "ob ject",
      "plac ed",
      "u ff",
      "su gg",
      "long er",
      "sup pose",
      "f un",
      "r ap",
      "s mo",
      "s low",
      "re ceived",
      "is m",
      "st ay",
      "be l",
      "ch ance",
      "ter ri",
      "end ing",
      "pro du",
      "gre en",
      "com mon",
      "? '",
      "A d",
      "C ap",
      "p es",
      "to p",
      "ar ch",
      "ar ri",
      "se a",
      "ent s",
      "fron t",
      "c li",
      "k n",
      "one l",
      "ain t",
      "us hed",
      "ex am",
      "feel ing",
      "sat is",
      "Co me",
      "hus band",
      "B ar",
      "C an",
      "D on",
      "f le",
      "p ublic",
      "an im",
      "no on",
      "am es",
      "po c",
      "do ing",
      "ex claimed",
      "some times",
      "ide a",
      "ef fect",
      "g ard",
      "m it",
      "m ur",
      "r ing",
      "t aking",
      "y e",
      "in v",
      "ar ing",
      "il ing",
      "itu de",
      "pret ty",
      "sou l",
      "c ry",
      "e at",
      "m and",
      "ent er",
      "mo tion",
      "ne y",
      "ca ught",
      "lau ghed",
      "Engl ish",
      "d uring",
      "l ine",
      "y es",
      "ro se",
      "al though",
      "com fort",
      "im ag",
      "daught er",
      "M on",
      "f ish",
      "w his",
      "li p",
      "for th",
      "for ward",
      "un i",
      "ist s",
      "ey e",
      "lau gh",
      "d ed",
      "f re",
      "w arm",
      "le a",
      "ut ion",
      "de al",
      "te e",
      "pl an",
      "gr and",
      "sto r",
      "cl ass",
      "bu ild",
      "cu ri",
      "R i",
      "W hi",
      "on s",
      "be ll",
      "ut ter",
      "li ce",
      "sa ge",
      "res h",
      "res pect",
      "di ed",
      "tre es",
      "car ry",
      "hun g",
      "boy s",
      "start ed",
      "a the",
      "c ing",
      "m iss",
      "y ing",
      "ar p",
      "ve l",
      "ri es",
      "oun t",
      "G er",
      "Q u",
      "f ight",
      "ve lo",
      "bl ue",
      "sen se",
      "reme mber",
      "partic ular",
      "d ut",
      "f ing",
      "i ble",
      "o s",
      "p ond",
      "v ar",
      "li ved",
      "ri ver",
      "un g",
      "de light",
      "qu ar",
      "af raid",
      "ck s",
      "dre w",
      "Engl and",
      "Per haps",
      "C or",
      "d in",
      "s n",
      "x ed",
      "li es",
      "for med",
      "ic ally",
      "there fore",
      "ist ed",
      "fi ce",
      "im medi",
      "sc ar",
      "happ ened",
      "temp t",
      "beaut y",
      "M er",
      "S e",
      "d anger",
      "g es",
      "i us",
      "j ud",
      "an x",
      "st ra",
      "lo ved",
      "ag er",
      "spe ci",
      "fl u",
      "G r",
      "J ust",
      "a h",
      "re li",
      "ly ing",
      "tr a",
      "tr ave",
      "stand ing",
      "step s",
      "pap er",
      "sugg est",
      "E very",
      "b b",
      "b right",
      "p ath",
      "en joy",
      "ut es",
      "li z",
      "un t",
      "gre w",
      "fi g",
      "sto pped",
      "say ing",
      "ob ser",
      "cha ir",
      "L u",
      "O r",
      "W ho",
      "f an",
      "s w",
      "w ise",
      "in ted",
      "in tell",
      "an n",
      "to m",
      "ar row",
      "le an",
      "part y",
      "qui red",
      "sub ject",
      "sis ter",
      "reco gn",
      "natur al",
      "Cap tain",
      "W here",
      "f illed",
      "l en",
      "p it",
      "hi g",
      "co lle",
      "stru ck",
      "chan ge",
      "b ank",
      "i ans",
      "m ine",
      "t one",
      "re sol",
      "ent ire",
      "co ver",
      "tr ans",
      "bro ken",
      "wal k",
      "expe ct",
      "ceed ed",
      "chang ed",
      "phy s",
      "fig ure",
      "D e",
      "t le",
      "li ving",
      "ri ch",
      "see ms",
      "mil es",
      "Go od",
      "gard en",
      "J im",
      "a ven",
      "c amp",
      "i red",
      "s pl",
      "me ant",
      "you th",
      "for get",
      "am ent",
      "tr ouble",
      "see m",
      "tal king",
      "oc cas",
      "g ar",
      "p an",
      "ing ly",
      "me re",
      "ro y",
      "lo t",
      "sa fe",
      "pe t",
      "go ver",
      "end er",
      "pro b",
      "sm ile",
      "Un cle",
      "spr ing",
      "T om",
      "c tive",
      "li ps",
      "ne igh",
      "do m",
      "ex plain",
      "bo x",
      "op in",
      "pr ison",
      "off ic",
      "att ention",
      "wal ked",
      "eas y",
      "thir ty",
      "quick ly",
      "P hi",
      "b ound",
      "g ro",
      "n in"
    ]
  }
}